fffc
0078
fff9
ffff
fffa
fffb
ff8a
ffc7
fffc
0078
fffe
fffd
fff7
0071
ffff
ffd1
006f
0031
fff7
fff8
002f
ffb1
005c
0015
ffd1
0070
006f
ff8b
001f
ff8a
ffcb
fffa
fffb
001a
ffff
ffc2
ffc5
ff96
fffe
fff6
ffff
ffe0
ff94
ffa6
fff7
ffff
002f
fffb
ff91
ff7b
ffa4
fffc
ff82
0029
0050
0009
fff7
fff8
0068
ffdf
002f
fff6
fffe
005b
