fcfd
fd46
fb92
fcd2
0221
febf
fa01
fc9c
0368
faa4
0573
0184
fe58
01fa
084c
08e8
0541
0653
fd71
06ac
fe47
fdd9
04b3
f9d7
04ea
fc59
fd16
00f5
fbdc
fd81
0238
033c
04b3
00b3
04a5
018d
016b
fe95
0369
0305
f951
022b
fa98
fa46
040f
fbb3
fa42
f866
fc8e
fc32
0272
fd60
03fb
033c
fe89
0183
fa34
02dc
0245
fa93
ff10
01e2
fb9d
fbd2
