01f5
0031
fe43
0084
007f
0150
01cd
ff73
ff97
fea8
ff13
ffa8
feb3
ff3f
0140
010e
0085
fe74
0185
fdf2
ff3b
ff4c
fdca
01e0
01ae
feeb
018d
fea0
0074
0244
0216
ff3d
0061
fed3
00cd
0293
0043
00bc
fefb
ff54
0117
014b
0013
ffda
fe29
ff7a
0106
001a
ff7a
0107
fec7
ff90
fee8
ff2f
01bd
018a
016a
01ac
fd70
ff4d
00cf
ffd9
0089
0063
ff54
fdc5
fe14
00da
01f6
ff27
0105
0205
ff51
fff2
ffe4
ff1d
0157
fd26
ff51
0143
00c9
ff8b
0136
ffb5
00b2
02eb
0023
0093
01ba
fe43
fed6
002a
01b4
001e
fe48
ff89
ff97
fcda
016f
ffba
feb6
01b8
ff1a
02c9
fed3
ff2b
011e
0018
010d
00f9
ffe2
0198
fecc
ffd5
01eb
fea3
ff36
0024
0110
006d
01b9
ffc6
ff18
029a
feaa
ff7c
00dc
ff5a
0049
ff5d
fe47
fe27
0116
01af
ff34
00b3
fe1a
ff30
0178
fef7
ffd7
fd8c
ff26
0115
fe93
ff6a
ffa6
ffb8
0230
0202
fd7d
00f7
0038
fde9
001f
013b
006c
ffab
00fe
ff33
ff01
fbb8
fe91
011f
ffcf
021d
ff9c
fead
fef7
fecd
010f
00d9
fe39
01cb
003e
0121
0217
ffee
01d6
fe6c
009e
fe9a
01f4
ffff
fecf
0114
ff5f
0277
ff2f
ff7c
ffec
022f
01c6
fd4b
ff49
01c4
01e9
010e
0227
00f8
009a
00ab
ff1f
ff03
fe0a
fcd3
01a9
0131
fed5
ffca
ff1b
ffdc
0173
02c2
fdbd
ff0a
01ca
00bb
fdb7
01fd
00b0
0071
00d8
0054
00bf
fcf8
ff83
013c
002c
00fe
0114
fc6c
fe2d
ffb9
007f
010c
0072
ffad
ff64
007a
01a7
fe75
0272
00d3
ffd0
0096
ff0f
fec3
ff55
ff68
ff91
0278
0047
ff05
feb2
0068
ff46
008b
fe61
fe49
fef4
ff15
fe12
0109
004d
fcb3
ffae
ff44
00e0
ff41
ff34
ffe3
fe6c
013f
005f
ff72
ffe3
fe24
fded
011b
0193
0008
fd5d
0026
fe17
ff1b
fe28
fea6
01b7
017b
0035
ff46
ff70
0002
01af
006d
00d4
fef0
ff08
ffdb
0129
017a
0026
ff06
fdb1
ff32
fe2d
fe1e
ffea
fe1c
0063
fcbb
010c
011e
fdf8
ffbc
0152
ff6f
01a5
fce2
0131
fddc
fefb
0114
ff59
00dc
ff5f
ff03
00a8
fe2b
01d7
0124
fe7c
010a
0139
01ea
fe3f
00cb
ff8a
00ec
ff13
ff00
00cf
008f
feff
0030
ff9a
fe12
fe29
013f
fe02
fffa
0073
01d0
ff47
ff21
0006
fed4
0035
ff63
feaf
00ee
00f5
0027
013d
ffb9
017b
fe4b
ffcc
0075
ff6c
01d0
fe8b
011d
fe46
fe0f
016d
ffec
feed
fdb0
fea2
ff9b
ff41
00fc
ff3a
fe9d
ff18
fe90
fe71
feda
004d
02bc
fe37
fbbc
016d
00bf
fea5
fe6a
feed
ff7c
ff60
ff8d
0115
0002
ff8f
0070
0078
ff80
fec7
0134
fdf2
ff5f
022b
0010
016e
ff60
0100
fe32
ffe8
feea
fd27
022b
0214
ffdf
fec3
01f3
01be
ff9f
00f8
fee3
fef4
fe74
01b2
febb
ffaf
01c8
01e0
0037
008b
fe8e
0407
01e3
ff9d
fe6d
0137
0152
febf
fdc3
0171
021f
0162
ffb6
001a
017e
00f1
fef7
00d9
0153
00ff
00c1
01b3
0027
feca
fde0
010d
00ee
fec8
ffa6
00d4
01f0
0114
ff23
ffe1
fe94
022b
005a
0153
00de
feec
0073
fe3d
fd89
0051
0118
024d
fe23
012b
0268
ff64
01c4
01f8
0332
0179
fe64
ff73
01bf
0109
fef5
037a
ff8c
0100
ffd4
fed4
00ed
0098
fe28
fed4
021a
ff5d
fea8
0132
0136
ffdc
0168
fecf
fea7
017c
fe43
0124
fcb3
ffd6
ffde
0156
0097
fd37
0121
fe4d
005b
00e3
fadd
fef4
004c
0629
ff7f
ff2f
018f
fe13
00bc
012b
fdc1
fb6b
ff84
029a
ff3a
ff87
05f0
ff3c
01d0
02ae
feba
ff37
fff6
ff27
fee4
fe1c
fe17
fe2d
00e7
080d
0190
f9f5
feab
0106
fe80
ff9a
07e9
011d
014c
fe9f
fe1d
febe
0502
0290
018d
0022
0150
ff78
fe9a
010f
0018
00a2
feeb
0106
ff63
ff56
ff1f
00ff
001a
01e7
00c8
011f
ff1e
fe76
ffa0
fefd
fe21
ff7c
ffc1
fe1a
01db
fef6
0074
ff9f
fff7
013b
ff08
ff1e
0069
00de
fbc8
005f
01b2
00ad
00f9
ff00
01aa
fe34
0222
01f3
0102
ff24
ff2a
023a
ff38
ff7d
feef
0202
00af
0052
febc
011d
ff25
0079
0071
fe71
029c
01fc
01df
ff96
00cd
fec2
0320
017e
0180
01c8
01a3
ff65
fd87
01f9
00f4
ff0c
0126
fe4a
0173
0117
002c
0027
fbf5
ffaf
013d
026c
fde3
003c
00c2
ff75
0094
015f
fe60
0027
fff3
fe37
0169
0027
05b0
0035
fb6f
fd49
001a
0185
fe27
fdf2
015d
ff0c
fd7b
00ce
ff00
03e6
ff54
ffc2
ffbb
fcf1
0112
ff42
0152
01d9
00a2
0079
fef2
01bc
ffae
0322
ffa8
febc
0213
ffdf
02e6
0182
002e
ff31
ffb7
fe84
fe2c
fe80
ff4d
0083
0104
00a3
0162
ffd2
fe73
ffc3
fc2f
0158
ff6c
0577
f99c
fef8
019b
fff2
feb0
ff96
ff33
017d
0137
ff9e
ff6b
0154
0312
ff7e
f988
fb4d
00f3
ff32
fd6d
006b
ff56
00a8
fcb9
fee3
00c0
04f2
0014
002a
ff2d
fe56
0108
00e2
026e
00bf
0009
fd1b
00a7
fe74
fb39
0231
009e
ffab
ff1a
fe8b
fe37
feeb
0139
0156
fe56
01f9
ff5c
00b4
fef8
003c
fe5e
001f
ff79
fe77
01b3
fe93
01ed
0179
00f2
0034
ffd5
004f
ff20
ff50
ffb8
fef1
0066
0133
00f0
ff2c
015a
fe75
fe73
fe3e
01a5
0393
0098
ff12
00f6
ffe8
ff0d
0156
00ba
fe5c
004a
005c
010f
0061
0173
ff8d
0184
0096
01d2
ff00
022b
029a
fe8c
fe2a
0072
000e
00e8
01cd
ff63
fee3
0269
ffca
fe4f
018e
ff54
fe48
fd83
fecc
ff61
0121
fe12
001d
0245
ff86
fec1
00f0
fc08
fe94
01c4
02d7
fde9
fff3
0183
ff43
01d2
01d3
ffd6
ff21
0085
00e0
016b
01c6
059f
fea0
feee
fd17
ff6c
ffc9
ff3c
0176
fffe
0080
fe62
01c3
fefe
0257
ffd1
ff4d
0064
fca7
ffe0
ff22
04d4
004d
007a
fd56
fe70
0115
ff77
0381
0107
0124
00be
ff4d
00fb
0018
0101
012e
fe1f
01ad
fe18
fff8
ffed
0029
feee
ff57
ffda
ffe7
005f
0054
feca
ff48
0068
0476
fd6e
ffe7
ff70
013d
ff2f
02a5
0005
0124
fdf9
ff60
0179
0023
0422
fe95
f9b8
fbc8
fe84
00ce
ff3a
ff4d
005b
0000
fdf1
0168
ff52
04a4
0023
fdc0
fe81
fd6f
01a7
feda
04fc
ff13
00d9
fd42
0005
ff26
fbf8
032c
ff86
ff69
002a
017c
002e
0155
ffe2
00b5
fff8
018c
f898
ff84
029f
ff4a
017f
010d
ff0c
ffce
ffcf
010c
fd82
0168
fe2e
04d9
fb0a
ff07
ff6d
fe96
01d1
002f
ffc6
ff81
ff4d
feb4
01db
fff2
0199
01d7
fb16
f99c
ff20
00dc
fa08
01ba
ffcc
0117
00c2
fe14
0079
060e
003a
0017
fee6
fdd5
0003
fccc
03eb
ff6f
ff6d
fdc1
0091
004e
f6fd
0372
fe74
fec2
01ea
ff4b
fb60
003b
ff69
ff38
0135
004c
01fa
013e
fcf2
005a
00a2
ff0d
fc34
0052
fcb9
fcde
ff50
0176
ff30
0026
0246
fb48
fec0
fe4d
fde5
fdf7
ff15
01ce
0176
00c3
fdef
fe5c
01ed
00c7
02f2
01f9
0073
ffd8
03d6
ffdd
ff13
00eb
fc1b
fea4
fe83
ffe9
00b5
0175
013d
0142
ff74
009b
ffb0
ffa2
ff3c
fdb0
01a9
fb5d
021c
0097
01b3
0153
fe7e
fedd
01c9
00ff
01bf
ff61
00f8
00c7
fdc4
002b
01d6
0015
fec6
0121
011e
fec0
0073
02c9
ffb5
ff28
febe
025f
fe4c
ff81
00f6
ff96
0162
0108
ff32
00c4
fdd9
0034
ff4b
0117
047b
fea1
fccf
fe59
fecc
017c
fed9
ff6b
ff34
ff65
fea1
ff79
0016
02bd
0015
fe33
ff1d
fe79
fe7b
fd39
0267
0158
0030
0043
0056
0107
fb5e
03e6
fe17
ff4d
000c
00b8
fe9a
0137
feea
0075
00e4
018a
ffa3
fe47
feab
01ac
ff1f
00b9
0085
fe53
0067
01b3
026e
0144
0121
ff03
01ad
015f
0023
fe92
fe44
01a6
0178
fe85
feb0
0115
000d
fe6e
fe7a
ffc8
ffe2
01f7
0176
fe9c
0356
01d2
0049
0111
0079
018f
001f
01d8
00dc
0121
01eb
0179
01bb
ff83
00e6
ff85
00be
0224
0123
fe8b
ff62
000c
ff9b
0204
ff5f
0085
ffd2
0048
0036
ff04
00c3
fe64
fc42
0118
0327
0087
00c5
008d
0311
fde6
0185
008a
fb62
00aa
0121
04e1
fb76
ff47
ff96
ff40
ffbf
02af
fea4
00db
fe87
ffd6
0146
01a1
039e
fffb
fdcf
faeb
014e
ff2f
f99b
0099
fe83
ffab
002b
0079
005d
0501
ffd0
ff0f
ff0b
ffed
ffac
fdde
0382
ffc5
fefd
fe9e
fec3
014f
f85f
02e3
ffed
fff1
fef9
fec5
ffb1
0203
013f
fe1a
0141
023f
018e
fe20
fcf1
fee8
ffe3
00e8
ffff
fe7e
0150
fded
00bb
0045
0054
ffd7
0288
fe82
00f2
0206
ffe0
ffbf
015f
01ee
fed3
0178
0127
ff74
fe38
ffc6
007c
ff40
000c
ff1d
feb6
fefc
ff53
01e8
ff0b
ffdd
fe5d
00e1
0121
fe8f
01e8
0274
00d7
0226
fef3
00ce
fe03
031a
0122
fd0d
ff21
007d
feda
0017
feca
ff38
ffb4
01c4
00b0
ffd3
ff8d
00c1
01f1
00f6
0145
0057
fe5b
01e3
fe3c
fffd
0172
018c
0326
fef3
fea6
ff26
027c
ff9b
fe86
0198
ff7f
0097
ffe2
ff78
010f
fee4
00bc
011b
fe94
0188
019c
0317
ff30
011e
0302
fe31
fe54
0227
01c7
0168
011e
febd
01ac
fe45
01d7
0398
0122
ff45
ff56
ff0b
0023
003c
01dc
012a
0051
008e
ff20
005f
00d9
01b6
0366
fe1b
0106
fe12
ffd9
fe9b
ff12
fe05
018f
ffc4
01b3
ff5b
0078
02f8
fe9f
0134
fc5b
0048
ffd8
0355
ff5d
feb9
ffae
ffa3
fe76
ffa1
00b8
022f
0052
fe14
ff80
feac
047b
00bd
ff51
fc49
011e
ff78
fdc8
00d4
ff23
fec6
fd2e
0053
0099
061d
ffea
0185
ffb2
fe5a
fe20
fea0
0483
fe7c
01df
ff76
01d7
000b
fb1c
02e3
0116
fe97
014f
0131
0284
ff1d
0201
01cb
fec6
fd47
ffa1
003d
fff1
003a
00bd
0162
021c
0090
02b1
0072
041b
012f
ff81
fd79
ffee
05c7
ff73
0092
0067
010f
fd0b
006f
feb0
feec
01f4
008a
fd3a
0101
0067
fe07
feff
0026
02d4
01ad
fe76
fdf9
fde7
ffe1
0049
ffa2
ff91
fef4
011b
0357
fe70
027d
fe08
fe9d
fe42
fdda
00b9
03b4
feeb
0367
fe8a
0110
ffff
ffa8
02e9
00c4
0159
0101
0139
00f1
ff74
fea9
00b5
fe2c
feed
ff8f
01dc
fefe
0136
015c
001c
febd
fec1
04df
fe56
0055
0067
ff4c
028b
fffd
fdc1
01b6
0099
00b5
0194
ffd8
075b
00fc
fd36
fe45
fe84
00f2
fdf6
ff52
0111
fed3
fdd6
01b1
ff24
0343
ff1b
012c
fd93
fe91
0043
fec1
03f7
0074
ffc6
fdca
fecb
00e4
fd1e
00df
ff5b
fe1f
01c2
ff2c
fe48
fe76
ffa8
fe9d
0043
ff40
fde0
fe8e
fdba
01ab
fe64
01c2
fe69
018d
ffbb
ffb4
02e7
0064
0013
fff6
00f4
fdd3
0121
fe76
fdf2
fee1
0227
fee5
fff8
01b8
0145
ffff
fee5
ff42
0242
0203
01a7
0131
ff06
0191
01d1
0260
0222
fe87
00a1
fd9a
00fb
fe5c
01ab
ff18
fe7e
017c
0011
fe46
019a
0271
fe4c
fe9d
0268
0112
0188
ff1a
0059
01c0
ff46
01a4
0130
018b
febe
012f
fd97
01a4
ff4a
004f
ffd1
0065
009f
ffee
fe05
01de
025c
ff46
ff55
00a2
00af
0044
01a3
ff28
fdfa
fee6
021e
ff98
0119
0121
ffae
ff2e
feb6
fe5e
0191
0189
0192
ff4d
ffe4
fe93
00a8
ffc9
00a4
00eb
fef1
fda8
ffbb
00f5
ff1f
022e
01b7
0048
0223
fe50
01c6
feba
01cc
fcbb
01fb
0189
0037
ff14
0032
0029
0234
ff73
0125
ff5c
0160
ff49
fede
0019
015d
fecb
01de
ffa1
01f8
fec4
fee8
00af
ff33
0106
0106
024e
fdd2
002d
0133
0190
0396
033e
fe45
008f
fe0f
0069
0047
007c
0706
ffa1
fc8c
fce6
ff68
0000
fe3b
ffac
fe20
ff89
ffbc
01a0
00f9
037f
00bd
fecd
fe03
fd72
ff43
ff59
043e
002b
0025
ff74
011c
ffda
fd84
012e
ff52
fe8e
015a
ff29
ff03
0014
ff02
fe5e
00ea
00e9
013b
ff30
fd69
fe81
006c
ffb7
fd9b
016a
01b3
004d
0009
fed9
0040
fffc
01de
00e2
ffdb
01e7
fe75
00c1
01a2
0089
fe4d
0182
ffe3
fe49
fc25
011c
ff2b
030f
0125
fe21
fe57
ff46
fee9
023e
02d7
ffad
ffb2
ff72
ff5d
ffac
008b
02cc
01cc
015a
023b
0190
01ce
0299
ff16
fff0
012b
ffad
00ff
ffa2
ff6e
00e9
fdac
01d4
0219
feda
0016
026a
0005
018b
ff06
fe78
feb3
017d
fe29
01ad
001b
ff69
fff3
0012
ff49
018f
00cd
ff58
01e0
0032
fc9e
ffac
0128
0144
ff3a
ff93
00c4
00a7
fbea
0184
fffa
01c7
00e5
fe77
feff
ff55
ff0c
012b
0157
ffa4
ff94
fe1e
00cb
00f0
0179
022f
00ce
01fe
fe65
0071
fe3a
028c
febf
ffa4
02b0
ff16
ff63
fe4e
ff7a
0063
02bb
ff2f
ffc3
fe9f
fde8
fe96
fcad
fed6
ff68
fefb
0032
fe37
01b0
fec6
00ed
010a
fd2d
ff6e
00db
049d
fc9e
012d
01bf
fe49
02b2
02dd
fddc
0102
fe37
ff38
0117
0203
03e7
fef3
fcc0
fa75
ffbc
fe93
fee1
ff5d
006e
0074
ffd7
ff3a
feed
037a
01de
ffe3
ffe6
fc09
0044
ff12
0624
0147
009b
fbbf
fee3
009f
fa82
0238
fee9
014b
00d3
01bb
00cb
ffff
01a7
fee4
0095
ff6b
00f3
fedb
ff1b
ff6d
00ff
fc85
007c
ff03
00e6
011e
fca8
feab
ff3a
fe22
00a5
018d
fe5d
fdbe
009d
fde3
ff0f
fe62
fdd7
ffb1
0096
0063
0245
0134
0128
03db
fe9d
ff94
ffed
fff4
fe15
ff33
fd98
fe96
febd
013f
ffaa
fc53
ff1b
ff9f
00fc
fe3f
021b
018e
00c9
01a8
fe02
fe2a
040d
fd34
fea8
ff51
00a5
