fff8
ffc3
ffa7
ffb5
ff95
fff8
0025
ffa7
ff97
000c
0039
005c
ffc7
004f
0047
ff98
ffb2
ffcb
003d
003b
003b
ffb2
001b
0045
005c
0058
ffa8
ffa1
000f
006c
ff83
006f
000f
ffab
ff98
fff4
0006
0069
ff8b
ff70
fffb
0009
ffad
0065
ffd7
0040
ffda
ff81
ff8f
ff88
0055
003e
ffe6
0067
ffda
ffbf
ffb7
006e
004b
ff98
0007
0014
0047
fffd
002b
0007
ff87
006c
ffb6
ff7b
ffbb
fff6
ff84
ffef
0013
0040
ffb3
005a
ffdb
000a
ff92
ff89
ffbd
0066
0003
005d
ffb7
ffa5
ffdc
0026
fff5
ff9b
005a
ffe4
006a
ff8e
0007
ffa7
005b
ffca
0067
003f
ffda
ffb8
ff75
002e
ff79
fff2
ffff
0060
ffe1
0042
ff73
0042
ff8f
ffbd
ffbf
ffa6
0002
002f
0039
0055
ff93
0001
ff95
0063
0054
0012
ffa0
006c
0045
003a
0001
ffdd
005f
ff73
0035
ff7c
ff86
005c
0039
ff6f
ff9f
0058
ffc0
ff7c
ff92
fff7
0038
0052
ff89
ff7f
ffbd
ffe3
006b
0017
0066
ffe3
ffc6
ffa7
0014
ff6f
ffce
0049
fff7
fff9
ffb4
004c
0033
004c
ffa0
ffad
0040
ff9c
003f
ffa6
ffe9
ffa0
002a
ff7d
fffa
ffb7
ff9d
006f
ff86
0072
0062
ffd7
ff93
0042
0057
ffe6
004c
006a
ff6d
ffed
fffc
0020
002e
fffe
fffc
0032
004d
ffa7
ff93
ffc1
0051
ffc0
0006
0018
ffff
0054
ffb2
0041
ff84
ffc7
0001
0021
ffdc
ff99
0026
ff83
ff6c
0053
0003
ffd7
005c
ffc6
0028
fffe
ffb1
005f
ffe3
ffc2
fff5
ff7f
0042
fffe
ffc5
ff8e
ffee
003b
001d
ffc3
ffbf
0027
ffcd
006d
006b
ffd2
0019
ffbd
ff82
ffa1
ffbc
0004
ffa0
0057
0056
ffbb
ff6e
ff78
ff6a
ff9f
ff92
ffc9
ff93
0072
0053
ffae
ff74
ffce
ffb9
003e
ff96
ff7f
0041
003e
ffb5
0032
ffec
ff96
0058
ff9e
0009
ff93
001f
ffd1
ffb2
ffb2
ff80
ffd6
ff91
0013
ffbc
ffd8
003e
0057
ffad
006f
001f
000d
ffac
ffd5
ffc2
0004
ffe9
fff1
ffd2
ffe7
ff8e
fff5
ffbc
ff83
0052
002a
0033
0011
ff96
ffa9
0031
001b
fffe
0015
ff85
ff9b
005a
ffa9
fffb
ffe7
0045
ff96
ff81
0000
0054
ff81
ff7c
ff97
005b
ffad
ff7c
0066
ff88
ffe0
0017
ffd9
ffe5
ffe9
0028
ffb6
ff81
ffe5
ff97
fffc
0061
ff7b
ff7d
ffd1
ffc9
ff9f
0047
0070
fff8
0069
ffa8
ffbc
ff7e
0074
ff79
0063
fffc
0028
ff81
ffa1
003a
005f
ff79
ffed
fffc
0031
ff9b
fff1
ff76
ff7b
0052
ffbd
fff3
005a
002e
ff83
ffb4
ffc1
0052
ff92
0070
0025
005b
000a
0051
ff85
ffe2
002a
ffdb
0056
ffa9
ffb6
0034
ffd6
003d
0009
005c
0065
ff7f
ffcb
ffd2
0007
ffc5
ffb0
003a
0026
ff82
ffba
ff87
ff90
0050
001b
ffdb
003c
003e
002d
0002
ff93
0023
ffd2
ffc4
0038
ff9e
004b
ff7c
0033
0001
ffde
ffef
ffa5
0007
0064
ffbc
ffb5
0039
0025
ffd8
ff90
0007
ffac
fff3
005b
004d
ff9d
ffba
fff2
0020
005d
000b
005a
ff81
ff9b
0030
002c
ffdd
0039
0062
ffe4
0045
005e
004b
0056
006b
ffea
ff9f
0069
0057
ff77
000b
ff83
ff90
0036
ffb1
0039
ffb3
ff8c
ffe4
006c
ff87
002c
fff4
ffdf
ff92
005d
002e
fffa
ffd0
fff2
0033
0040
ffe4
ffa4
0049
0067
fffe
0020
0004
ffe5
ffa0
ffb7
ff6e
ff93
ffa0
ff86
ffca
ff87
0028
003c
fff0
ff82
0026
002a
ffd6
ff7c
ff8b
0021
ffdc
ffce
ff82
ff8a
ffa5
ff9b
ffb6
003a
ffe7
ffb0
0028
002f
ffeb
0067
ffb4
ffea
ffeb
ffc4
ff73
ff7c
fffc
ffb8
ff7d
0024
0053
ffd7
ffff
0003
ff8f
006a
0034
ffab
0034
fff5
0058
0009
0076
ffe5
ff9b
0076
0020
ffad
ff7f
004b
0006
0022
ff9e
ff73
0042
ffd7
ff9d
0033
fff3
ff7a
ff68
ffc9
ffaa
ffb2
ff7a
ffcd
ffe8
ffc4
ffcf
0025
0030
ffd4
001f
ffe3
fff7
0019
ffac
ffd0
ff84
0070
ffb2
0061
0068
ff7c
0012
005c
0017
005b
0041
0049
003a
ffab
0038
ff96
005b
ff97
006d
ff85
fff0
ffd0
ffe9
ffaa
ffc9
0034
0061
003a
0050
003d
ffb9
0040
0074
0070
ffa2
005e
0028
000c
0067
ffa4
ff87
ff73
ffd2
ffdd
ffa0
ffe5
ff84
002d
ff9c
ffae
0065
0058
ff9e
ff91
ffd7
003d
0003
001c
000e
fffb
ff8b
ffdf
ffcb
fffc
004d
0036
0024
0020
ffc2
002e
fff3
ff9d
ff70
ffe9
fff6
000f
ff65
ff8b
ff67
0057
0000
ff9c
0055
0001
006c
ff8c
0036
0021
ffdb
0059
ffad
ff9e
002e
ff7a
ffb5
0070
005d
006f
0060
ff8b
ffc4
0021
ffa6
ff72
004f
0001
ff6e
fff0
ffdc
003c
003f
0059
005b
0033
ffc4
ff8c
ffa5
ff80
ff85
fffd
0024
001f
0072
000a
004d
0033
006a
ff83
006b
ffbd
ffc2
ff70
ffa5
ffe7
0031
ffa9
ff87
0000
004d
ffe0
0032
003c
0046
0063
ff78
005c
ffde
ffa2
0019
ff8d
0054
ff7c
ffec
005c
ffc6
ffca
006d
0027
001d
ff83
ffa5
ffec
0060
ffda
ffec
006d
ff8b
0004
ffac
ff84
ffd7
0042
ffd9
ffe9
ffdc
0064
ff77
ff9f
006c
ffef
ffce
0002
0070
ff88
ffbd
ffdb
0012
0041
0035
0035
ff88
0075
0002
ffa2
0051
ff7a
0026
ffee
002e
ffaa
002c
fff6
fffe
004b
ffa8
000a
ff9a
ff8e
ff7a
ff94
ffaa
006d
ff79
002e
003b
ff9d
0038
ff9c
0035
ff98
0054
0037
ffea
005f
ffc0
ff95
ffee
0042
ff9f
0014
ff6e
0030
ffb0
0004
ffbb
003e
fff1
004c
ff7c
ff94
ffe3
ff9c
ff9a
0069
ffe7
ffcb
ffdd
ff89
ff88
0028
003c
ff9d
0057
ff8e
0040
000f
ff92
001f
ffee
0019
0054
0017
0012
ffb0
ff84
ff6e
ffd6
0061
0059
0000
ffa5
0027
ff8b
ff9f
ffe8
0014
ff8c
ffd0
000c
0074
ffba
ffd7
ffca
0049
0068
0004
006b
ff82
ffc2
0019
0035
ffc2
ff87
ffc6
ffe2
ff9c
ffcb
ffc2
ff79
ff83
005f
ff97
ffbd
005d
ff8c
fff2
ff81
ffa4
0035
ffaf
ff9e
ffb3
005c
ff90
0072
ff8d
fffc
ffc3
ff9d
ffd2
ff81
0056
ff79
0055
0007
0032
004f
ffc4
0025
ff73
0028
ffac
0002
ffa5
005b
0062
0036
0065
0071
0026
ffe8
0010
ffc2
005d
ffb0
ff92
0051
001a
0074
0051
0058
000a
0032
0067
fffd
0067
ff89
003f
ffe8
0004
ff90
005e
ff86
ff9a
0034
ff8c
002f
0055
ffb7
fff2
fff8
ffad
0079
000c
0065
ffdd
ff9c
ffc2
004b
ffe2
ff98
ffa4
ff76
ff9e
000f
0045
ffbb
ffcc
0005
ffbd
ff80
ffe1
ff69
ff6d
003d
ff8e
0012
ffc0
ff91
0047
ff91
ff96
0058
0072
ffbc
006d
0062
0001
0055
ff91
005a
ffaa
0038
ffad
ffb0
ff93
ffc6
0028
ffd9
ffcd
0058
004c
ffef
ff77
ff7e
ff87
0029
0029
fff2
0044
ffb2
ff79
ffd1
0007
ff85
ffae
ff80
0006
ffa8
ffc1
fffe
0059
0003
ffd1
ff6e
ffa9
ffa7
0026
ff8d
ffbc
ffc0
ffc4
0052
ff56
fffe
ff99
ffbc
fffd
0001
000d
ffff
0055
0048
fff9
0058
0013
ffb9
0046
0033
007d
007d
0072
ffad
ffbc
ffe8
ffb1
ffee
0061
0044
0050
00c6
ffe2
0038
0009
0002
002f
ffd6
0047
006e
ffb6
0096
0036
0036
0080
0052
ffc8
0013
ff9e
ffa8
ffc7
ffdb
0002
0055
ffe3
002c
ffdc
0053
0080
ffde
0085
0021
004c
0056
001d
0079
00d8
0090
002a
0051
0078
0079
ffd1
0084
ffe5
008e
007f
007c
002e
ff97
ffb3
0068
0054
0013
005e
0028
003f
0067
008b
0012
0075
fff3
003d
004f
0056
0011
0021
0082
009d
00e0
0054
0067
ffac
0068
ffcc
fff3
004b
ffdf
0006
ffe1
fff5
0065
0051
ffca
0026
ffe8
ffaa
ff7d
004f
0033
ffba
fff5
006b
0038
ffe6
0013
ffca
fff8
00a8
0080
0093
0054
004b
ffb8
0018
ffb1
ffcc
ff95
fffe
ffcf
ffc3
ffe7
ff8d
ffad
0035
ff5a
ff9a
ffed
ff7d
ff9c
0036
000a
ffac
ffd7
ff98
005d
0082
0082
ffcd
0040
fff9
0090
0092
003a
0037
ffac
ffb1
0017
0030
ff93
0028
003e
ffec
ff77
0039
ff52
0015
ff80
ff5e
000d
fff9
ff4c
ff58
004e
0031
fff9
fff3
ffd4
ffe9
ffb7
ffc4
ffd9
0070
ffd4
00a7
00dd
004f
007c
ffb5
fff3
ffe3
0087
003e
ffab
0054
ff96
0053
0046
ff56
ff5b
000f
fff5
ffe9
0024
ffa4
0042
0054
000f
ffd0
0083
0055
ffc7
ffb7
fff4
ffed
0030
fffb
002a
fff0
fff5
0092
ffc5
ffe1
ffa4
ff9a
ffb2
ff8a
ff8f
ffc3
0022
ffe8
ff79
002a
ff7b
003d
0011
0055
0028
ffea
0055
ffdf
0003
ffa4
ff98
fff3
002c
0048
0049
0055
008e
00a5
0097
ffeb
ffef
fffb
ffa6
0079
fff5
0007
ff90
ff62
0056
0061
ffd0
0032
ffef
004f
0046
ff60
ff8d
ff98
ffeb
003e
005f
ffed
0092
0046
ffa3
ffc0
fff2
ffc4
0000
0055
0036
ffd6
ffe3
ff9c
0001
ffc1
ffa3
ffd2
ff96
ffd9
0033
fffb
ff8e
0067
ffc4
ffce
0030
ffa6
ff7a
005e
ffa4
0052
0038
0088
0070
0052
0037
0050
0073
0042
0011
0010
0044
ff96
ffdf
002b
001d
ffe2
004a
fff2
ff83
0038
ffe9
004e
ffdc
ffca
003b
0053
000e
ffa1
001a
0038
ffee
fff2
ffc6
ffd8
ffbc
ffb0
0027
0039
0030
ffff
002c
ffc0
ffe2
ffed
ffa5
003e
0043
ffe8
0003
ff7a
0007
ff6c
000a
0001
ffa7
ff8f
0005
000b
0053
0040
ffaa
ff96
0049
0076
0013
002d
000b
001a
fff1
0022
004a
0087
ffc7
ffd8
0010
ff7b
ffa5
0023
ff75
ff8a
fff2
ff8d
ff8e
ff76
ff7d
ffb1
002d
0021
0016
ff7c
ffe6
003e
002b
ffe4
0068
ff9c
fff9
ffdb
ff94
0052
fffa
ffe0
000f
ffcf
fff9
008c
ffbf
001a
ff8f
ffcf
0064
005d
ff93
006a
ffa6
ffcf
001a
ff45
ffc1
ffae
0037
0013
ffcf
000d
ffd2
fff7
ffed
ffc0
ffee
ffa0
0089
ffe8
fff8
ffe3
0086
fffb
0017
ffd7
ffc2
0019
ffe1
ffc3
ffbf
ffe3
ffc8
ffaa
0041
ff84
ff5c
ff61
ffe6
003e
ffda
0051
0079
0041
0028
0043
ffaf
0014
ffc9
0051
0072
ffe9
0041
ffd7
0066
005b
ffe8
0095
0022
ff86
001b
0095
ffd8
007a
003e
ffc8
fff6
ff8b
ffda
ffe6
0020
ffbc
0060
ff9a
0040
0054
0070
ffc1
ffc4
0007
fffd
0057
ffad
0069
ffb2
004e
0018
0034
ffe1
00a3
001e
fffc
000a
ffb9
006a
ffb9
ffaa
002e
ff9d
0042
0007
003d
ff73
ffbf
fffe
ffab
0010
ffd1
ff80
ff93
ffcc
0039
ffee
0093
0056
004a
0064
006a
0010
0023
ffc3
0080
ffe7
ffdb
ffb2
ff80
005d
ffa0
ffd9
001e
ffe4
0062
ffd8
0038
ffd2
001c
0023
0013
0047
0037
003d
003d
0073
ffe2
0059
ffc0
0087
0064
003e
0015
ffba
0024
ffc5
0091
ff9f
0052
0015
001c
000b
ffab
0027
0048
003f
fff6
ffc1
0014
fff0
ffe7
ffb6
ffd1
0034
ffad
ffcf
ffcb
ff90
0023
0017
fff9
ffcd
ffdd
ffab
0096
004b
ffdf
0077
ffc5
005e
0014
ff57
ffa3
ffcb
ffdf
ff52
0003
ffef
002a
0040
ffab
004b
0030
0041
ffc8
001a
ffa1
0061
0042
ffa9
ffbb
ffdd
ff87
001c
ffff
fff3
0081
003c
004f
0065
0019
ffb8
0053
ffb3
0009
ffdb
0029
ff66
0031
ff72
0027
ffd6
ff9a
ff57
ffe4
ffa5
0045
0055
ffb7
0063
006e
ffbd
005e
ffa1
fffc
ffd7
ff86
ffb5
0098
ffc0
ffe6
ffb8
006a
ffad
ffa8
001d
ffbf
ff75
000d
ff7c
ff9d
ff73
ff77
ff86
ffbf
fff7
0039
ffb7
ffbb
0024
ff90
0020
ffc6
fff5
0037
ffdd
007b
005b
004a
ff9f
ffc1
ffcb
ffdf
ffdc
0054
0008
0005
ffe9
fff3
004a
fff6
ffab
ffb9
ff88
ffc1
000b
ff70
0000
ff89
0004
ffda
ffec
ff8b
001f
ff7b
003f
0015
fff4
ffdb
0077
0030
0015
004c
ffb5
005d
ff9c
ffc5
fff5
ffd5
ff81
0011
ff91
ffd9
fff2
ffc6
ff7b
ff80
ffea
ff85
ff67
ff8d
003d
0062
ff78
fff4
ffdf
ff9f
ffa6
ffa8
0079
0076
fffb
ffb0
ffb4
0012
0006
0075
ffcc
004f
0027
fffe
ff6e
0045
0011
ffef
0036
ff75
ffd1
004d
ffb3
ff8e
fff5
fff8
001b
ff9b
0028
0055
0019
001e
ffd6
005f
0034
ffb0
ffa7
ffd7
0027
002a
fff9
005e
ffe2
008d
002f
001c
ffb1
ffbf
0065
0028
000f
ff7b
0056
0044
ffc3
000a
ff6d
001b
ffca
0006
ffa1
0050
ffd8
ff98
0035
ff68
ff8f
002d
0066
0047
0079
0004
0059
000a
fff6
003c
006e
0003
0056
ffa5
ffb4
009a
0061
fffe
006d
fff9
0011
fff1
000f
000a
007a
ff9a
ffd4
ffc5
ffa0
ffc0
ff75
ff82
0000
ffb5
ff8d
0044
ffa2
0088
ffeb
fff8
0050
007b
0002
0055
0040
0071
00b6
0051
0080
ffba
ffed
ffea
001d
ff97
ffe8
ffd4
ffae
ffba
0011
004e
0053
ff91
ffb7
0038
ffde
fffe
0089
006e
ffcd
0002
0041
0064
00d6
00dc
0036
001f
0072
000d
ffcc
ffe4
ffea
0031
0019
ffdc
0069
0042
ffc1
005c
fffb
fffb
008f
007e
0005
0039
001e
0036
000f
0026
0081
0072
0077
0060
ffce
000b
00f8
0032
0042
ffc0
002c
ffe2
0012
fffd
0045
ffa3
0092
ff9c
0087
0021
ffbf
ffd4
ffb7
0057
ffd6
ffe7
001c
007c
fff2
002c
0008
0042
ffcd
0035
0005
008f
ffab
fffb
0064
00b2
ff93
ffa9
fff1
ff6a
ff82
ff78
0029
0026
ff6b
ffa0
ffac
ff79
ff93
0026
001f
fff7
ff85
ffdd
ffcb
ffae
ff94
0041
003e
0033
ff82
0064
0011
ff72
ff6b
0033
0026
ff90
ff85
ffa3
0029
ffbb
ff5d
ff81
ff87
0004
ffcd
0044
fff6
ffd9
003b
ffe9
0019
0021
ffba
ffc8
ff8e
0018
0000
0011
0043
0040
ffc8
0034
0026
ff73
ff80
0032
ff6c
0003
fff3
ffa7
ffef
fff1
ffaa
ffed
003e
ff74
ff77
ffb8
ffc6
0041
ff7a
003e
0016
ffb7
fff2
ff93
ff8c
0030
ff83
ffec
0029
fff0
0022
003e
ff6f
ffd7
005e
001c
ff87
ffb6
0061
ffa6
fff7
fff6
ffd8
ff6d
ffe1
ff73
ffc6
ffa2
ffe8
005b
004c
0043
ff87
0015
0014
0004
ffd4
ffda
ff85
ffea
001c
ff68
ff84
0033
0046
000c
ff82
ffcc
ffe9
0060
fff6
001e
ff99
0025
0041
0011
ffe4
0058
ffbe
ffc9
0022
ff62
0068
001f
ff9c
ffe7
ff7d
ffbf
ffe0
ffb0
0021
ff9e
fff6
fff6
0053
ffdf
0066
005f
ffc2
0006
ff9f
ffd7
ffcc
fff8
ff9e
003a
ffa1
0054
0031
fff6
ff78
ff5d
ffb2
ff6f
0023
ffee
ffc4
ffe1
ffcb
ffe4
0031
ffef
ff8a
ffba
ffeb
000c
ffaf
ffa4
003f
002c
0027
0015
ffaa
0061
ff6e
0018
ffb6
fffd
ff91
ffed
ff6d
0029
0013
001f
ffc2
0039
ffdd
ff8a
ff9d
ff95
0057
ffea
ffee
ff64
0013
0033
005d
ffc7
ffa1
ffb3
0033
005d
ffbe
0004
ff72
ff9b
ff7e
ff70
ffd7
ffb0
0024
ff7f
ffdd
ffff
ff81
ffc9
001b
ffc4
ff6d
0014
0039
001d
ffa7
001e
ffc1
ffa9
0001
0037
0047
ffc5
003c
ff9a
0055
ffb1
ffd9
ff85
ffff
0047
ff60
ffaf
ff69
ff58
ffcc
fff5
ffd3
ffaa
ffa8
ffc4
ffde
004a
ffce
ffb5
ff91
ff8d
0051
0043
ff5e
ffc6
ff58
ffff
ff70
ff8e
ff9b
001b
ff91
005e
000c
ffac
ffab
0044
001b
fffb
ff7b
ffa1
0015
0054
ff84
001d
0016
002b
0016
ff85
fff8
ff82
0047
0033
ffb0
0035
ffed
ff88
ffad
fff3
ff85
0040
002e
004a
fff8
0048
0005
000a
0030
ffe1
ffbb
ffae
ffdc
ffa5
004a
ffe8
ff9c
ff85
0025
ffc0
0028
ffe5
ffd5
0028
0043
ff72
fff1
ffe1
ffb6
0046
001e
ff81
ffe4
ff9a
ffea
0067
ffc7
0072
0006
0056
ff83
0004
0051
ff6a
ff9f
003b
ffe4
000a
ff67
002b
005c
ff87
ff8b
001a
0030
002d
000f
ffb6
ff57
ffe9
ffd4
ffe9
0013
001d
005d
0079
0076
0072
ffb4
ffaa
ffbb
ffd8
000e
ffed
ff6e
ff94
ff92
fff1
ffb8
ff91
ff61
ffd3
002f
ff6b
ffa8
ff7d
0034
ffaa
ffb3
ff8a
ffcb
ffe3
0007
ff65
ffe8
0020
0033
ffc2
0028
ffb8
ffff
001c
007a
ff8b
fff2
ffff
ffab
ff88
ffa2
0035
ffaa
ff62
ffa7
ff87
ff6f
0035
ffa9
002e
fffe
ffec
ffde
ff8f
fff5
ff66
ff83
ffbd
ff7a
ff72
ffbd
ffc9
0039
007f
0080
ffd1
0014
ffef
007e
0072
ff5f
0042
0033
ffc3
ffe7
ffcb
fffd
004d
004f
0034
004d
ffb5
ff8f
0022
0025
ff5f
0001
fffc
ff8c
0029
0018
ff8c
ff87
ffcf
ffd6
003f
0028
ff8b
0009
0075
003b
ffd1
0042
ffbc
ffcc
0055
ffdf
0013
0054
fff3
004e
ff79
0027
ffe4
ff9e
ffa3
fffb
ffc9
ff71
ffd8
0027
ffd9
ff6e
ff81
ff61
002e
0078
ffdd
ffad
007a
002e
ffb8
0004
ffe7
0012
000e
ffd4
ff75
ffb1
0040
0043
ff67
ffde
ffb1
ffe1
0042
ff5c
ff9c
ffc7
ff72
ffd5
ffc2
ffd5
0016
ff67
ffba
0021
004d
0033
ffd8
0042
002e
0018
ffcd
005f
001d
ffb4
0033
ffc8
ff61
ff99
0020
ffd2
ffc4
ffd5
ffbb
ffd0
0056
ffbc
ff5c
ff71
002e
ff79
ff6c
0016
002a
fff6
fffb
0056
0016
ffab
0050
ff8a
ffdd
ffbc
fff4
005b
003b
0013
fff6
fffa
ffba
ffa1
ffa3
ff9c
ff89
ffea
ffd2
ffe2
000a
ffeb
ff72
fffe
ffc7
ff76
ffe7
ffd7
ffd8
fff2
ff80
0002
ffe3
ffbd
ff90
ffdc
001a
0047
0027
fff8
0026
0039
0049
0009
0015
ffda
0044
0019
ff94
ff5f
ff95
ffb9
ffb9
0039
ffe3
ff98
0025
ff89
ff96
ff5e
ffd8
ffdb
ff7c
ffae
0013
ffa4
0016
fffc
ffbe
ffab
000f
0050
0016
ffca
ffe7
ffb5
0046
fffb
ff66
0036
0001
003f
ffb0
ff54
ffd8
004d
ff7b
ffb0
ffd7
ffa5
ff61
ff66
0041
0003
002f
0006
0055
ffeb
ffcd
0021
ffc5
0083
003d
0042
ffd5
ffde
ffa2
ff90
ffa1
0058
0063
ffff
002b
ffca
0047
fffa
0029
ff9b
ff83
ff58
ffbc
ffe8
ff81
ffa5
ffb7
0053
005e
ffee
0064
ffc2
0035
0059
0017
0007
ffcf
ffa3
ffcf
0021
0024
ffd8
ff81
0064
ffc2
ffd0
003d
ff5e
ff89
0010
002c
000d
ff78
ffc1
0008
ffd8
ffb0
001e
ff92
ff85
0046
0023
ff7a
0050
ffb5
ff7e
001d
007b
ffcf
ffeb
ffd5
0047
000c
ff97
002f
0041
0022
ffd4
ffb4
ff6d
0016
ff5b
004c
0031
ff7f
0049
000a
ff66
ff6d
000e
0040
ffc4
ffb2
ffc4
005e
0040
0021
ffbf
ffd2
0039
ff8b
ffdc
ffd3
ffde
ffe6
ff98
ffb6
ff8b
0034
005c
ff9b
fff7
0021
fffa
ff94
0045
0055
fff0
0042
ff79
ffac
000a
ff77
ffb6
0035
0038
ff9d
ffd6
0016
ff84
ffce
ffb1
ffe9
fff4
fff2
006d
000f
0023
0044
ff82
0012
002e
fffa
0031
000a
ff64
ffd6
ff6a
0008
ffd2
ffd8
004a
ff7e
0040
ffa0
ffc9
ffd9
ffe6
0051
ff9f
0068
ffc2
ffe3
ffc4
0062
ffa2
ffad
001f
ffe8
ffe4
003e
ffb7
001b
0045
ffa5
ffb0
ffe9
ff92
ffb4
fffb
ffa2
0066
ffae
0035
ffa2
ffe0
fff7
007a
ffe8
0019
0044
0060
ffe8
ffdf
ff7c
0023
ffb4
001e
ff94
004e
002e
0006
0063
0055
ffc6
ffbf
003c
fff2
0039
0039
ff90
ff7a
ff88
ff7e
0008
fffa
ffd7
ffc5
ffb1
ff84
0003
002e
ffaa
ff8a
ff79
ffb2
ffad
0037
0028
ffb9
ffd2
ff7c
0038
005e
ff76
ffa4
ffb7
ffe7
fff9
ff99
0062
ffa1
0062
ff84
ff81
002b
ffee
0034
ff7b
ff82
0016
ff83
ffc6
ffae
ffaa
ffa0
ffb5
ffb3
ffe2
0022
0060
ffc9
004f
001b
ff92
ff9e
ffc2
ff9a
0020
ffb0
002b
fff1
ffba
ff98
ff85
ffd6
ff8b
ff97
ff7f
0006
ffd5
000a
fff8
ffce
fffc
0075
ffae
0067
ffae
fffb
ffff
ffd8
004b
ff9e
0045
ff72
ffff
ffb1
ff9d
ffe0
ff74
ffce
ffc7
ffa7
ffac
ffba
0076
0068
001c
ffa1
0038
0058
ffb9
ffed
0016
ffa0
0044
ffaf
001a
005b
ffc1
ffaa
003c
0035
ff96
ffb6
0033
ff7b
ff78
0012
0041
ffb7
ff86
ff7b
0009
0004
fff5
ffef
0041
fff3
0018
ffd5
0038
ffc2
fff1
001f
ffa6
ffc1
007d
ffea
fff1
ffbf
004f
0006
001a
0018
ffdd
004a
ffed
ffec
ff92
0013
ffda
ffd8
ffc3
ffeb
ffec
ff77
ffb0
0078
ffe4
006f
ffa8
ffeb
0025
0066
0069
000e
fffd
0067
ffb6
0039
ffc2
ffb1
fff2
ffef
ff83
ffe3
ffae
ff9d
002c
0015
ff86
ff8c
ff82
fff1
ffeb
fff1
ffac
ff74
ffde
ff8c
ffc8
ffda
0052
0044
0023
0044
ffd6
fffa
0023
004f
005c
ffcb
0016
ffb2
fff7
ff70
002a
0001
000d
0000
003a
ffda
0014
ffb4
0023
fff8
ffaf
ffac
003e
ffca
0010
003c
0035
0059
0032
0047
0059
003d
ff9a
001c
000c
004c
ffd5
fffb
0039
fffe
ff84
001d
ffc2
ff75
ff98
0005
ff87
ffa6
001a
ff8e
ffe6
ff93
0006
0026
0004
0012
ffaa
ff6b
0022
fff0
fffe
000b
ff79
000e
ffdf
ff8b
ff7f
ff91
fff0
0060
0052
fff6
ffa2
004b
002b
ffcc
ff85
0052
ff7c
ffa2
ffaa
0056
ff97
ffd8
ff6c
001d
ff6b
ffbf
ff77
fff3
ffb1
ff85
004d
ffee
ff79
0055
ffb8
0009
0058
ff6f
0013
fff3
ffa6
fff3
ff92
001a
ff9d
ffb8
ffb4
000d
002a
001a
ffea
0038
ffad
fffe
0008
0043
004c
0054
003c
ffff
003e
0043
fffa
0007
0062
0033
ffad
ff6f
ff8f
ffc3
0013
ffe2
0048
0019
fff1
ff76
ff6e
ffa6
004d
ffbe
0043
ffd5
0026
ffa8
ff71
ffe2
ff77
ff7f
ff78
0055
ff6a
ff84
0016
000b
0005
0035
ffbd
0037
ff95
ff69
002a
ff88
ffd7
0040
ffcd
ff82
ffb7
ffd1
004f
ff8f
0021
ff6f
001c
ffaa
000c
0026
fff6
0059
ffed
ffdb
0040
002a
fff3
0033
0047
004d
003f
ff91
ff90
ffce
0041
ffdd
ff9b
fff9
0053
0057
ffc5
000c
ffff
ffa7
0017
ff6c
ff75
0032
fff1
000a
0009
ff89
ffe8
ffa1
ffc2
002a
ff9c
ffc5
ff6b
ff7c
003d
ff95
0061
ffa3
ffe5
ffef
0063
004b
001e
000e
0042
0020
0000
0010
ff97
ffac
004b
0063
ffac
ffcf
0001
001e
ffce
ff6c
ffe1
ffd3
ffd2
ffb1
0002
ffdf
fff6
ffeb
ffd6
ffd0
ff72
002e
ff70
ff81
ff7a
fffa
fff4
ff71
0018
fffb
ff75
ffdc
0049
005f
0046
ffa9
005f
0027
0046
ff89
fff0
fffe
ffce
ffcb
ffef
0031
ffd7
0067
0037
ff9d
ff92
003e
0006
ff7e
ffea
ffb3
ff6d
ffde
0040
002f
ff7b
ffda
ffd6
ffc6
0033
0015
004f
ffba
ff6f
ffba
0051
ffeb
004b
0051
0009
004e
0052
ff86
0014
ff96
ffb1
000f
ffe2
0047
ffe7
ffd5
ff8a
0002
ffeb
0040
fffd
0055
ff9d
0059
0031
ffec
0006
ff69
0041
fff9
0062
ffc2
ffd2
0011
002b
ffdd
ff85
ffa0
fffa
0054
ffcc
003f
ff6d
0014
ffb3
0023
ff80
ffed
0026
ff76
0009
0045
0017
ffde
ffb7
ffed
005f
ff84
ff74
0056
003e
ffad
ff93
001c
003c
0042
ff6b
ffe1
0058
ffa1
ff9a
ffc9
0008
ff6e
ffad
003c
ff6a
fff3
ffbd
000b
ffcd
ffb5
ffd3
ffae
ffed
ffe2
0060
ffb9
004d
ff76
ffa3
003f
003c
ffdc
ff9d
0047
ff81
ff85
001e
ff7e
ffd4
fff9
ffe9
0016
fff2
0025
ffae
ffda
0038
0045
ffe9
ff6d
ffc9
ffaa
ffbd
ffc2
0035
ffb5
0058
ff7c
ffcd
0014
ffc3
ff86
ffc4
ff68
ff99
0052
ffe7
0038
ff78
ff6d
ff90
0041
0014
003b
ffe3
0003
0049
ffd3
ff79
ffdd
ffc3
0051
0000
fff8
0058
ffb4
0032
000a
0050
0007
0064
ff9c
ff6a
004a
ffdf
ff68
001e
0028
ffbb
0000
ffa7
ffc6
ffd3
0034
0030
0052
ffc5
ffe4
ffea
ff90
001f
0017
0029
ff94
0062
ff8f
0045
ffc2
ffb5
0059
fff0
ffdb
0051
ffae
0055
000a
0031
ff93
ffe7
ff9b
002d
fffe
ff78
ffbe
ff7b
ff77
0028
0017
fff0
ff8c
ffca
ff68
002d
ffc2
ff74
ffbf
ff9b
001a
ffd4
fff9
004d
fff4
0061
ffe5
0001
ff71
ffea
0030
0064
0049
ff69
ff71
ff92
ff94
ffdd
ffc3
0032
ff98
0019
0064
ff6e
ffb8
ff6d
ffec
002f
0067
0019
0011
ffde
ffee
ffcc
0033
ffed
ff81
003c
0032
ffcf
ffba
ff94
ff76
ff75
004d
ff6a
0021
fffb
ffee
0067
ffe5
fff1
0000
005f
005a
0047
0060
0014
ff8c
ff84
ffac
ffd3
ff98
0034
005a
0012
ff7e
0003
ffb2
000b
ff7d
ffd6
0023
ff69
ff86
002b
ff70
ff6d
ffbe
0027
ff92
ffdf
fffd
fff2
0046
ffe2
ffeb
0038
ffe2
ffb8
0034
ff91
0004
0020
ff8c
000e
0047
ffde
ffe0
0054
0062
003f
005c
0011
ffad
0050
ffd9
0039
ffcb
ff8b
fffc
ff7c
ffc8
ff8d
ffa0
001e
ff88
ff6a
000e
003d
ff89
0000
ff7f
ffa7
ffed
ffe8
0014
ff72
ffbd
001d
001a
ffe8
ffb3
ffb7
ff69
ffa6
ffe7
ffa8
0016
ff97
000a
ff8f
ffde
ffb1
ff9c
ff6c
0048
005b
0053
ffdc
fffa
fff4
fff0
ffcd
005c
ff8f
0024
ff9a
0063
ffae
0003
fff4
0011
ffb5
003f
0030
0015
0060
ffc8
fffd
ffc3
ffde
ffd3
0057
ffef
004d
fff1
ffda
fff7
000e
0002
ffa9
0044
ffe4
fffc
ffd6
ffb5
ff83
003c
ff82
ff72
ffd9
ffb7
ff82
ffd1
ffb7
ff90
005f
ffdb
ffc1
ffc8
ff90
ff83
ffb1
ff6f
ffdf
ffe5
ffee
003c
fffb
ffb9
0044
0002
003f
0012
ffdf
ff89
005a
ffd3
0025
001e
0007
0007
ffc4
ffef
0018
0003
001a
0062
ffdb
0018
0042
ffca
0040
ff9b
ffac
005f
ffb4
ff96
0064
ff89
ffc4
ff7c
ff80
002d
ff70
0065
ffeb
ffac
ff8d
0061
ffae
ffdc
ff87
0044
0008
ff7b
ff80
ff6a
ff79
ff8a
fff8
ff6e
ffab
ffbd
ff96
ffc4
ffb0
ff7a
0056
ffc5
005d
ff98
ffb0
0017
0031
0060
ff86
ff92
ffcf
ffa0
ff69
0028
0048
ffe8
fff9
ffb6
ffa1
0045
0027
0007
0008
0062
004d
0060
ff9b
0037
ffaa
ffda
ff74
ffc3
ff9d
0025
0033
002d
0048
ffdc
0006
000b
ffce
0019
ff70
ffb7
ffc1
fff6
fffc
fffa
003f
ffa9
0065
ffca
ffde
0028
ffdf
ff82
fff2
ff9a
fff5
ffb8
ffdb
0046
0063
004c
000a
0032
fff7
fff9
ffdb
ffce
fffe
ffdc
0000
0031
004c
ffd1
ffc9
fff1
ff79
fff9
ffdc
0006
ffbe
ffe2
0065
0001
ff8d
0058
0005
ff9e
ff9a
0015
001e
ffd7
0044
0045
ff91
ff9c
ff92
0053
ff96
002d
ffe1
fff8
000a
ffa1
ffac
ffc0
003e
ffda
001e
ffda
ff90
0056
0025
ffc4
ff8b
0009
ffa3
0044
ff84
0010
ff72
ff9b
ffac
ffeb
0058
ff72
002a
ff8e
ffe6
ff90
ffff
ff74
ffe9
004b
ff91
ff94
0050
ffc8
0043
ffa5
0001
0060
ffc6
0009
ffd2
0044
0019
ff90
005b
005b
ffb8
ff7c
ff7f
005d
0040
ffc7
ffe5
ff8b
ff72
002a
ffd8
ffa8
000d
ffae
0041
0039
ffce
ff7f
005c
0033
002e
005c
005a
ffba
005b
0007
005d
0008
0048
0026
001c
005e
ffeb
ffe0
ffe1
ff87
ffb6
0053
0057
ffe8
0022
ffd8
fff7
0008
ffb3
ff7c
ffe5
ff82
ffbd
0001
0052
0030
ff7f
ff8c
fff3
fff4
003b
ffb5
ffa9
ffaf
0025
0016
ffad
0038
ffbf
0010
ff7a
005c
005a
ffc3
ff93
ffc8
0065
ffb8
ffd7
ff83
ffba
003c
ff6f
003e
ff9d
0016
ffcf
0019
0054
ffa3
ffcb
ffbc
0052
ffb9
0053
000b
ffa2
0040
ffc1
ffdc
ff9b
ffa5
ffb9
ffd2
001e
ffdc
ffb6
ff90
ffec
fff7
ff95
005c
ffb6
ffe1
0063
ffe6
001b
0055
ff81
003b
0064
ffaa
ff6d
002e
ff7f
ffff
0012
0001
001b
0000
ff76
002e
ffd4
ffe2
ffd8
ff78
ff77
005b
ffde
004f
ff9c
ffc1
ffd9
ffb7
ff88
ff91
ffc5
001b
ff6d
ffa2
ffe5
ff76
ffa1
ff6d
ff86
ffff
ffb8
001f
0021
fff5
0009
0046
0008
fffe
ffb7
ffca
ffe8
ffe1
0058
ff93
0049
0013
0002
ff8d
004d
ffeb
ff9b
ffda
0048
ff83
ff72
ffe4
ffcb
ffe5
ffc8
003a
ff77
fff0
004d
0016
0013
0050
0059
ff85
ff8f
003c
005a
002a
ff74
ff70
002d
ffc6
ffb9
ffab
0028
0043
0002
ffed
0039
0006
002a
ff90
0035
ffc6
ff74
ffe3
ff9b
000d
ffe6
ffdc
ff87
ffce
000b
ffc9
ffc9
ffd5
ff96
000d
ff68
ffc1
0067
ffe4
ffc8
0036
ff97
0047
ffa1
ffa9
ffdf
003e
ff83
ff9c
0008
0051
ff9f
0060
ffd7
ffb9
0063
ff69
0057
fff3
fff8
ffa7
0014
ff8c
ff90
000e
ff6d
0059
003d
fff1
000b
0056
ff7a
0006
ffc3
ffcc
ff92
0039
ff78
ffec
000d
ff7a
ffe2
ff85
0037
0033
ff90
0007
0051
0019
fff4
ffa0
ffc7
ff9b
0010
004a
ff94
002e
fff5
0035
ffb5
ffad
0049
ff7d
0033
ff84
0067
ffb6
0007
0066
ff91
ff7d
ff9e
ffff
005a
004d
001d
0055
0054
ff84
ff6e
ffca
ff90
0010
000e
0018
001d
0066
001c
fff8
ffd8
ffb8
fffd
000c
ffa2
ffa1
0018
fff9
0053
ffc2
0007
0042
001d
001b
ff7d
ffa2
ff7d
003b
ffc8
ffae
ffab
ffac
ffb0
fffb
0056
ffd1
0013
000e
000f
ffe5
ffad
0018
0061
ffcb
ffa4
ff98
ffe1
0034
0037
0029
ffeb
0021
ffc5
003a
ff9b
ff7f
ffad
ffcf
0050
fff9
0027
ffaa
0018
ffe5
ffff
0042
ffe0
ff97
ffcd
0010
ff88
ffe2
005a
000d
0037
001d
ffe8
ffd3
0065
0064
ff9d
005b
000e
ff7f
ffb6
0052
0062
ff8d
ffeb
ff6f
005d
005b
ff9f
ff73
ffef
005a
0027
001c
ff88
0040
ffdb
0020
ffa0
ffff
ffca
ffce
ffc2
ff8b
002a
ff77
ff82
003c
ffe9
001c
000a
ffb7
ff95
0022
ffb7
ffe3
000f
ffe7
003a
0030
fff6
ffde
005a
ff83
ffc7
000e
ff6c
0027
0065
ffa6
ff91
ffd2
ff87
fffd
fff3
ffac
0025
ff7a
ffbb
0049
ffe6
ffee
ff7b
ffec
0020
ff74
ff6b
ff91
ffc4
002d
ffbb
0019
ff6a
ffea
ffb1
0013
0067
ffc7
0032
ffc0
ff6b
ffbe
ffac
0058
ffa3
0032
0051
ffae
fffa
ffcd
ff70
fff9
ff95
003b
ff6b
ff6e
ff86
ffce
ffbd
ffdc
ffa1
ffc3
ff8f
ff87
0047
ff8a
001c
005f
ffec
ffc9
005a
003f
0027
fffa
001b
ff9c
ffeb
002e
0034
0004
0020
ffd2
003f
fff0
ffa0
ff6e
ffac
0035
ffea
0053
ff79
ff6c
ffb6
004f
ff8b
ffec
ffa2
ffc8
ffe8
ff8a
004c
ff73
ffb6
ff8b
ffba
ffc5
ffef
ffba
ff7c
ff7d
ffab
0016
ffbc
ff9c
ffc2
0027
0005
ffda
ffd1
001f
ff93
ffd4
0014
ffa3
ff8a
ffd5
ffea
fffb
ffd8
ff98
001a
ff97
002e
ff9f
0025
005e
ffb9
004e
ff92
fffd
ffbc
0034
0007
005d
ffa1
ff9b
0040
0034
fff2
0002
ff9a
ffaf
005a
000b
ffd8
0066
0001
ff81
004a
ffb4
ffd0
ff70
002c
ff6e
fff3
0021
ffbd
0023
ffc8
ffa1
ff7c
0038
ffa4
ff8d
0032
0019
ffff
0052
ff7c
0033
ffa7
001b
0015
ff8a
003b
ffb0
ff9c
0044
0062
0048
0019
0025
ff83
0044
0027
ff9d
fffb
ffda
0044
ffd7
ffec
0034
ffa8
ff87
ffe2
fff3
ffba
ff9a
ff86
ff9e
ffc7
003a
0064
0033
0064
ffc4
ffc7
001a
0002
ffa0
002f
fff8
ffab
ffe7
ff9f
ff92
ffa1
0056
ffaa
0000
ff88
002d
ffb1
fffa
ff96
ff7a
ff8b
ff89
001a
ffdd
ffdb
ff8f
ff6c
0029
003e
ffc7
0019
0037
ffa4
003b
ff9e
ffbe
ffe8
0022
ffe7
ffbf
003f
0019
ff8f
ff92
0055
0025
ff8c
ffef
0043
ffe0
0061
ffc7
ffe7
ffa3
0057
ffff
ffc1
ff9b
0052
fff6
fffd
0017
004c
ff8d
002e
ffe3
ffe2
ffbb
002e
0056
0011
ffb4
ff78
ff6c
000a
0018
ff7e
001f
ff92
003d
ffdb
ffa9
ff7f
ff80
001f
fffe
fffb
0022
fffe
ffee
0007
ffa0
ffde
0009
0017
ffee
ff6c
ffc2
0015
ff9b
0026
ffd4
ffe2
ff99
ffad
ffe4
0045
ffa7
003e
0033
004b
ffa3
0052
0044
ffc6
000d
ffe3
001b
002b
ffd2
ffaa
001e
001f
ffbf
ffce
000f
fff6
fff8
ff69
ffd8
0050
000d
0019
001e
fff0
ffbc
ffda
ff6a
003f
ffed
001b
fff7
001b
0055
ffdc
001d
0044
ffb2
ffa1
ffb9
0065
ff88
fff7
ffd6
004c
0018
ffa3
0026
ffac
ff72
ffd5
ff6b
0001
ff8a
ff6c
ffe0
ffe1
0015
ff94
ffc8
ffaf
003f
ff7c
0010
ff7e
ffa6
ff8b
ffd8
ff8c
001c
001a
ffc1
ffaa
0024
ffb8
0032
ffd8
ffe4
ffdb
ffba
ff9a
ffc0
ff93
ffc4
0010
ffe4
0038
005b
000d
ffaa
fff1
ff84
fff2
ffa2
fff1
ffb2
0044
0055
ffc2
fff6
fffa
002d
ff6e
0027
0037
0011
ffb3
ff8b
ffb5
0022
000d
fff7
ff7b
ffd1
002b
ff76
ffb4
0036
0046
fff6
003f
ffed
001f
ffd4
004f
0040
ffc7
fff3
0029
ff95
ff72
002a
ffff
001b
ffd8
ffef
ffd9
ff7d
ffa1
ffe4
ffb7
0019
000e
0039
ff95
0008
fffe
ff8b
000c
ffc3
ffa5
0001
ffe2
0039
ffda
0033
002e
0024
ffde
ffd7
0005
0010
ffe2
ff82
0025
0061
fff0
ffb8
fff3
ffae
005d
000e
0020
004f
ff6d
0063
001b
ffe3
ffa8
ffae
ffc7
ffe1
ffa8
ff75
ffd2
003f
ffdc
0045
ffc4
ff7b
ffdc
0058
ffdb
ff8b
ffb5
ffc7
0008
ff6e
0045
ff72
ffdd
000e
ff90
0007
ff94
ff95
ff87
0044
fff2
ffd7
0052
ff7a
0046
ffb7
0043
0024
ffd0
005a
005e
ffa6
ffbe
ff68
003c
ffbe
0036
ff8b
ffa4
003c
0057
ffe6
0063
ff90
0030
ffe3
ff90
ff7b
0058
0035
ff85
ff7a
005e
002e
0017
0032
ff7c
ffa6
ffd5
ff80
ff78
ffa2
ffc4
ffc9
ff99
001f
ffc5
001c
ffaa
ff76
ffc4
0048
fffc
0021
ff88
ff85
ff9e
0056
ff9b
0013
ff88
0067
fffd
003f
ffce
0018
ff71
0050
000f
ffda
005a
ffb2
ff9d
ff7b
ff78
002e
ff92
0056
fffa
fff3
000d
ff97
ff69
0018
ffbd
ffee
ff7d
ffbf
005e
ffdf
ffb5
ffae
ffc5
ffa3
ffc2
0049
ffd7
ffa6
0005
0039
ff6a
ffc2
0025
ff73
0049
0065
003a
ffb1
ff73
ffcf
0012
ffab
ff7b
ff7b
ff83
ffd4
ff69
ffc8
0054
ffd6
0026
0009
003e
ff79
fff7
ff7e
ffa5
ff71
ff84
0026
0015
0019
fffb
0015
0038
ff86
ffbc
fff2
fff5
ffc5
ff8b
0031
ffd4
ffa0
ff74
004a
0065
ff90
ffe1
ffaf
ffcb
0026
ff96
0040
0053
001c
0016
0039
ff90
ff73
fff5
000c
0060
0018
0043
ffc8
0036
001b
001c
ffb7
ff7c
0040
0027
ff9e
fff7
0011
ffa8
0032
ffd8
ffc7
ffc1
0008
ff8b
ffe4
001e
ffd7
fffb
0036
0035
002a
ff69
ffd7
0024
ffb2
fff3
0024
0057
ff76
0039
0021
0049
0047
ffd4
ff81
0012
ff8d
ff7c
ffd7
ff90
fff7
005c
fff5
ffb1
0029
ffc0
0024
005a
0042
004e
0043
0032
ff80
ffdb
000c
ff94
0038
005e
ffc3
0011
ffa5
0047
0060
0055
ffdf
ff75
ffb4
ff84
ffcf
ff6f
0017
ffef
fff7
ff6c
001b
0067
fff4
ffc5
ff91
0040
0037
0043
ffb4
ffd6
ff6a
002d
ffb9
0021
0003
0057
ffd9
ff69
ffe1
0004
0035
001e
ffcd
ff6b
ff90
ff7d
0048
ff7e
0041
fff3
ffeb
ffd7
ff6a
ffdc
ffaf
0033
ffaf
ff84
ff97
0047
ffbb
0036
ffac
ffe1
ffb3
ff93
0025
ff76
ff6d
0063
ffa8
ffad
ffe1
fff4
ff98
0006
ff6d
0036
001d
000b
ffb9
ffbb
000e
0014
000f
004b
002e
ff78
001c
0041
ffdf
ffc7
003e
ffbf
ff9e
ff97
0026
ff6a
ffc1
001b
0025
ffe1
ffeb
ffef
001c
ff8b
0027
ffc8
ffff
0032
ff9a
000e
0066
fffd
fffd
0037
0024
0043
ff82
0048
0040
0027
ffc5
0040
ffac
fff9
003e
ffb0
ffad
ff69
ffe2
002a
0014
ffa0
003c
001e
0060
ffd2
ffca
ffa7
0044
ffbf
005d
002b
ffc4
0041
0052
0050
fff4
000d
fff9
ff76
ffbe
ffe7
002f
ff90
0046
ff97
ff6e
ff9c
004a
ffcc
ff93
005f
0033
004c
ff6c
ff6d
0017
005c
ffbc
0058
0059
ff8a
ffb2
ff86
0023
ffc0
0010
ff86
0035
001a
0011
0056
004e
0035
ff91
004b
fffd
ffd7
003f
004d
ffad
fffe
ffc3
0062
0054
ffd7
0066
0028
ffa5
ffaf
ffc5
ffde
0014
ff7f
0016
ffd3
ffd0
ff8b
005c
003c
001c
000a
005f
ff6b
ff91
ffc8
ffcc
004a
ffc4
0042
ff8f
004a
ffab
ffd8
ffd4
ff9c
ffd1
ffb9
ff8e
0009
005a
ff6c
ffd2
ff7b
ffca
fff8
ffcb
0030
0006
ff92
ffae
0045
ff8f
0061
ff6f
0012
001f
0058
ffca
ffa7
ffb4
005c
ffe2
ffc4
ff8a
ffcc
0021
ffdc
fff2
ffde
ff6d
ffd5
ff8c
ffa8
0006
fff5
ff68
fff2
001e
ffe6
ffd8
000c
fffa
ffeb
ffbe
000e
ff7c
004d
0052
0038
ff6f
ffea
ffa3
ffb9
ffb7
ffef
0035
ff91
ffd5
004d
ffd1
ff93
ffa3
ffd1
ffa6
0066
fff1
ff75
ffbf
ffcc
0053
0062
ffa2
0041
0001
001c
003c
0042
ff71
0030
0005
ffd0
ffa3
ff7b
003d
ff94
000e
0024
0059
ff71
0043
ffbe
ff8f
ffca
ff92
0067
0040
ffee
ffd7
ffff
ff7b
ffaf
ff98
ff75
ffa5
ff86
005e
ff84
ff7c
0017
fff5
0013
ffe8
ffe4
ffe0
ffa7
ff8d
0063
0036
0019
0056
fffb
0018
ffcf
ffd7
ffd1
ffc2
ffa1
ff91
ff98
000f
000f
ffab
0059
0034
ff84
0009
0064
ff9b
000b
ffcf
0063
ff76
ffb8
ff8d
ff95
ff9e
ff95
0056
ffd7
005d
0019
ffaa
0059
003f
ff97
ffac
0067
ffe8
ff96
ff76
ffde
0035
fffa
ff79
ff91
ffa2
ff9b
ffdf
ffc4
0051
ffcc
ff93
ffd4
ffd9
ffa2
005f
ff7f
ff77
ffea
ff7f
0031
0029
0005
0024
0027
ffe7
ff7d
ff70
ff80
ff7e
0001
0000
ffbf
ffa0
0027
ff6c
0033
005c
0023
ff8f
ff71
ff9d
ff9d
ffec
0034
ff8f
0029
ff93
ff8a
ff80
0028
ff8b
ff8c
ff74
ff8a
005e
ffa3
ffba
ff76
ffb3
0027
0002
0040
005f
ffb6
001f
0017
ff78
ffab
ff76
0042
fff6
ffbf
000b
ffa4
0060
005a
001f
ff81
ff83
ffa7
0023
0008
ffb5
ffea
ffc9
ff7b
001c
ff8b
ff83
ff71
ffea
0020
0050
ff6f
0015
ff8d
ffe2
0027
0036
001e
ff88
0022
ffb8
ffee
ff77
005d
ffdb
ffe5
ff7a
0037
0019
ffd7
ffc0
001a
002b
ff8a
001f
fff0
fffd
005a
ffd2
fffc
ffcc
0014
fffc
002f
ffe2
ffb4
fffc
ffb7
ffab
fffc
0048
003b
ff9a
ff7d
ffdb
0025
ffe1
ffe5
0018
ff9a
0014
ffe7
0064
ffce
ff84
0064
0015
ffb9
ffc4
001a
0064
ff85
ffc0
0042
ffc1
ffea
ffca
fff4
ff7b
ffd6
ff72
ffdd
fff4
002e
ffb7
005f
0028
ffd2
0032
005d
ffd4
0040
0059
ff86
0052
0050
ffb5
ffcc
fff4
ffa2
ffa8
ffdb
ff76
ff71
ffe2
ff82
ff71
ff7a
0033
001c
000f
ffd1
0004
ffb1
0020
ffb4
ff8f
ffbc
ff69
0016
000f
ff6e
ffe8
ff90
004d
0004
ffd5
005a
ffec
ffc1
0041
ffa2
ff9c
fff7
ffac
ffee
000d
0048
0005
ffeb
fff7
0024
001c
ffa4
ff9d
0057
0019
0042
002e
ff8b
ff7f
ff83
005f
ff6a
ff83
ff9d
ff68
ffcf
ff76
ffdf
ffce
ffc6
ffe1
002f
ffed
ffb1
ffc8
004f
ffcb
ff99
0024
ffdb
ff68
004d
ff86
ffc0
ffe1
ffce
ffdf
ff7c
ffb7
002a
0012
002c
ffd9
ff92
ffbc
0005
002b
ffa7
ffe3
ffc1
ffe0
000c
001c
ffc0
ffad
0046
ff9f
004a
0002
0056
0062
ff77
001a
ffc8
005d
ffed
ffaa
0055
ffea
0012
fff2
fff4
ff8b
0046
ffa9
002c
0057
ffb5
005c
0032
ffe3
001a
001f
ffae
ffc3
ffb6
0032
ffc0
000f
ffd6
ff83
ffa9
ffc6
003f
ff80
ffcd
ff6f
ff7b
0064
0012
ff76
0048
0043
fff3
0017
ff73
003e
0027
0020
0006
0024
0029
ffc8
ffdf
ff73
004a
0009
0013
ff97
0062
ffdd
ffae
ff81
0001
0065
004d
000e
003f
ffd3
ff70
ffbd
fffb
0050
ffda
ff79
0000
ff80
005d
001f
0066
0063
005c
ff8f
ffb3
005c
ffe8
ff7a
0009
0003
0028
0047
ffb6
0018
0008
0009
0034
ff77
ffd8
0025
0055
0018
ff6d
ff6e
0005
ff68
ffea
ffd9
ffc6
fff0
ffc0
0027
ff9d
ffc2
002a
ff70
ffa0
001e
0005
0018
ff85
005b
ffba
0053
ff88
ff79
ffe5
0018
ffc6
ff8e
ffaf
0000
ff87
0006
0019
ffdb
ff9b
ff7a
ffdc
000c
0041
ff7a
ff80
0049
fff6
0046
0027
ffcf
0007
ff7a
ffc8
ffc2
ff89
ff7d
ffd9
0040
003b
000f
005e
000e
0065
0005
0037
ff9c
ff89
ff75
ff9b
ffe1
0050
ff82
ffd6
ffe4
ff75
ffcf
0066
ffa0
ff8a
001e
ff79
ff78
ff6b
ffd0
ffbe
ffa2
ffaf
ff74
ff95
0058
0058
002f
ffc5
ffab
ffac
002f
ff6c
003d
ffd1
000e
0083
0010
0021
fff3
ffd9
0036
ff6b
004c
ff8d
0031
ffad
002c
0062
005a
ff8c
0028
002f
ff6d
ffa5
ffe9
ff7c
0000
ffc4
ff6b
ff84
ffce
ffe4
004f
fff9
fff5
fff1
0041
ffd1
ff91
ff9b
005b
ffa7
ff7e
ffc8
ff9a
ff8f
ff81
fffc
0060
002a
fffa
ffb4
002c
ffe7
ffad
ffcb
0020
ff98
001c
ffcc
ff96
ffca
0041
0014
0045
0065
0102
00a2
00f9
008a
0063
00f0
00fa
004d
0093
00bb
0021
fffb
0041
0002
0094
0088
0056
008e
008c
008d
0026
00d8
00c7
0085
0081
0124
00b3
003a
0081
00e0
0009
001d
00b8
00ab
0067
ffb5
0007
0025
ffcb
0058
00a6
ffc5
ff95
ffd5
0005
ffd5
001b
009b
0097
fff4
0071
fffc
0089
0028
0076
0075
005f
00a8
0031
0053
004b
0067
ffb6
ffea
000d
0021
0098
ff98
005e
ffa3
ffbd
ffab
0018
004b
ffd6
0009
ffad
ffc1
0037
ffeb
ff92
004b
ffb0
ffd6
0009
ffd8
0077
005c
0038
fff1
0014
ffe5
000c
ffd5
ff73
0031
0008
ffab
0036
ffea
ffd5
0066
0011
001e
ffc5
0015
0015
ffe8
0025
0007
ffa1
ffa4
fff3
000d
0049
0052
0067
ffab
003d
008f
ffce
ffff
ffbf
0080
ffaa
ffd2
ff7a
ffe2
ffd2
0042
0010
0033
ffe6
ff98
ffd8
0070
001e
0064
ff9b
ffff
0006
000b
ff89
fffb
ffa3
ff7c
ffb6
000a
ffc9
0097
0020
00a1
0078
009e
ff96
0062
003b
ffdb
ffa7
002c
ffda
0004
00ba
0056
ffd1
ffd6
ffcb
ffdd
009b
008d
0075
000e
ffc8
fffe
0007
007e
fff4
007a
ff9f
ffcf
0071
ffbf
ffd1
002d
0039
0019
fff7
0017
0057
ffca
000b
002d
0093
003f
002b
00a8
fff5
0035
fff6
0089
000a
003c
ff9d
0055
0034
fffa
ffa7
ff8b
ffe4
008e
000f
ffa4
0083
008b
0001
0081
00ba
0006
0013
ffe3
ffc0
0011
ffc4
003f
00a3
fff1
003b
00a1
006d
0020
ffcd
ffda
009f
008c
0019
0028
002e
ff71
0078
002d
0000
005c
ffb4
ffa2
ffc8
006a
00a1
00b8
0098
0027
ffcd
0045
002b
fff1
005e
002a
0099
ffd5
00b0
005c
003f
ffe2
0042
ffee
0053
ffcb
fffe
ffe3
ffaa
0027
005a
0025
0010
0029
006d
0087
ffc9
0024
000d
008a
001f
00c3
ffc3
ffb3
ff93
0056
006b
0040
0085
ffe2
0043
006b
ffa4
006b
0034
00ac
0035
001f
ffa6
ffef
ff8f
ffc6
ffc5
0010
ffbb
ffdf
ffe4
ff91
000c
0043
ffe8
0061
ffe7
00b0
008d
ffed
ff9b
ff6a
fff7
0024
0058
ffea
003f
0075
001b
001a
ffa5
0016
003e
ffe0
ffb3
ffd7
0011
ffa3
ff90
0033
fff2
004d
004a
ff7c
ff6e
0062
009f
001b
ffcb
0075
003a
0060
ffa3
ffe7
001a
0047
00c9
0028
00af
ffff
0018
0066
0062
003d
ffef
004e
ffee
fffb
ffea
ffc4
ff7e
ffbe
ffcd
fffe
ffe8
ffed
0019
ffd3
0014
007b
006f
003f
ffd0
0077
0041
0034
ffab
ffe1
0013
003b
006f
009a
00a0
0039
0070
0071
006b
ffcb
001f
ffa8
0010
000e
fffd
0065
001e
ffa3
ffef
ffb0
ffd8
ffab
0048
008d
0069
ffb0
ffb6
004c
0019
003a
ffa8
0095
00b0
0022
000a
0092
0029
ffd1
0070
005e
0007
ffeb
0009
ffcc
0037
004f
fff3
0024
001c
ffb1
ff85
001a
0003
ffe9
ffd0
fff4
ffcb
ffd0
0021
ff8f
ff88
ff97
0039
0037
ffee
fff7
001d
0086
0089
0034
ffe7
ffea
001f
009c
0066
ffdc
ffc5
ffe8
ff84
ffa3
002f
ffca
fff9
0022
ffd0
0008
001a
ffc6
006e
0052
0012
ff9d
ffb5
0013
0006
009c
00b5
0045
ffe3
004c
ffd4
0024
ff89
ffe7
0084
0001
ffbf
0013
fff5
003a
ffbb
ffcb
ffac
fff3
ffce
ff9d
0023
ff9b
ffd0
ffa5
0023
001c
00aa
0010
ffc4
ffed
007f
0007
0014
ffbd
ffb6
ffcd
ffe1
ff96
ffd5
000a
0069
0046
0067
0035
ffad
ff71
ffa9
ffbc
fff4
ffba
ffa5
ffe9
004f
004c
0003
ffc1
ffcd
006a
00b8
ffb7
ffd4
ffb5
fff0
ffcf
0023
0097
0050
0052
ffd1
0082
0030
ff9f
001d
ff87
007a
ffa9
ffc4
ffce
ffbc
0011
0007
003d
0020
ffc2
0067
0038
000f
007b
0024
007d
003f
0043
fff7
001a
000c
fffa
0057
00a5
ffd9
0025
ffde
0075
ff8d
ff78
fff6
fffb
0011
fff4
0052
000d
ffa0
0042
ffc6
0049
0008
ff84
ffef
ffe6
ffe4
0076
ffc2
ffdf
ffbb
0022
0037
ff50
0000
000a
004e
ffe3
fffd
0062
0083
002d
ffe2
006b
0065
ffd6
ff90
ffe1
002b
ff8d
0071
0025
0019
fff5
fffe
0011
ffdc
0050
ffd7
ffaa
0068
003c
0024
ffcc
004c
ffb8
ffe4
0040
0003
0052
fffa
0096
00a2
ffde
004b
002c
fff4
ff9b
ffdd
0018
001f
ff7c
001a
ffa7
006d
0025
ff98
0027
ffed
005e
0094
005f
004f
ff91
ffef
ffdd
fff4
ff82
ffd0
0010
ffc2
003c
004c
00c5
fff0
ffde
00a2
ffa0
0032
fffb
ffed
0028
ffec
001d
003e
fff0
000e
0036
ff7f
ffad
0067
0076
ffa1
0070
003e
ffd9
ffb0
ffbe
ffa8
ffd7
ff69
ffe4
006e
004f
009b
ffd1
004d
0058
006e
0033
0080
ffc7
0081
003a
ffa8
003f
0009
003a
0015
ff83
002f
0012
ffe2
001e
ffc2
ff9a
ffd6
ffae
0079
001c
0073
ffa0
ffac
0041
ffd8
ffd5
ffc2
ffc8
0043
ffd2
ffb7
0043
ffce
ffec
ffc0
ff8d
003b
ffd2
ff79
ffa0
0011
ffd1
ff8b
fff2
ffb2
ff98
0013
0036
004e
ffd0
001e
ffe7
ffbe
ffae
ff97
0013
0002
004c
fffd
0022
0027
0047
0089
0043
0028
0052
fffd
ffc9
0008
0045
ffd8
ff83
0031
ff78
0041
fff9
ffa3
ffb5
0044
ffcc
007d
0074
001e
0032
ffe9
0012
004a
009e
00bc
0078
ffec
fff7
ffa2
ffb1
0040
ffb1
0061
0036
0020
005d
ffdf
ff61
0029
ffc6
ff9c
0004
0055
ffc1
ff7d
0034
0036
0019
006c
0008
007c
0047
ffc7
0026
0007
ff95
ffd0
005e
0007
0047
001f
000e
ffc7
004f
ffff
0026
ffeb
0035
ff88
ff87
ff97
ffc6
0065
ffa1
0078
ffca
002a
004b
0083
ffa9
fff6
ffef
0045
0039
ffe8
ff99
ffa9
ffdb
ffc7
ffad
0077
0016
ff99
0067
0006
ffe4
ffd8
0018
ffc1
0059
005e
ffd5
002a
ffd9
ffc2
ffa9
0029
0017
ffef
ffe3
ff91
007d
ff85
ffa1
006a
ffde
0046
000e
ff62
0034
001b
ff8c
006b
008c
0031
ffd9
003a
ffee
ff90
ff98
0052
0029
fffc
ffc0
004e
001d
ff9c
ffee
ffa4
004f
ffea
ff8c
ff8e
ff8d
0033
005d
ffa5
ffec
ffd0
ffbc
ff4b
ff7f
ffd9
0030
006a
00b2
0076
007d
ff8a
ff79
ff9e
0083
ffe9
0031
0048
ffc2
002d
ffc9
007e
ff9f
008b
0016
ff83
0058
002f
ff9a
0019
005c
ff95
0028
0004
ffe8
ff54
0038
ffad
ffbf
005c
002e
005b
0015
ffe6
001c
0010
003c
0090
0091
005d
00b7
ffdb
ffc6
0024
00c8
00a6
0024
ffbb
ffff
ffbb
008f
0017
00b6
0014
005d
0068
ff93
004d
007c
0005
0013
00e0
00af
00d9
00b8
0051
0081
00b2
00e7
010b
0049
005f
008a
00f6
003e
00ea
0050
00d3
006d
0049
000d
0072
0094
0019
00ca
012f
0028
0095
0025
009e
00ff
0174
00ff
00a7
009a
00dd
019c
0119
01da
015a
0151
0190
0117
0160
01b5
012a
0158
0173
0190
00fa
0137
00ae
ffd7
003d
fff6
fff2
ff76
ff16
ff35
ff98
ff68
0123
0092
00ff
0102
00e5
0107
00ad
00c9
015f
0108
013e
019c
0121
0170
01a8
015f
00ca
00ab
0110
00b5
0101
005f
00c6
0001
0030
ff7d
ff08
fed9
ff5f
fe6b
ff07
ff5c
00f7
010c
0063
012b
00fc
0028
00bf
00e8
006c
0159
00a2
0090
00de
00a5
011f
0125
00ef
015e
011f
007e
0061
0058
ffa4
ff86
ffa5
ffa0
ff5c
fee1
fe71
feb5
fe78
fef4
0085
006c
00bd
00b7
007b
0089
005d
00ef
0063
0097
00ed
011e
015b
0164
014a
012f
00f8
010d
0110
0091
0041
0018
ffd8
ff5b
ff7f
ff68
fedd
ff26
feae
fe85
fe0c
fea8
0115
00c3
0072
00d5
0058
005b
002d
00da
00f3
009d
013e
00e7
0173
0133
00ba
0158
00ed
0102
0059
ffda
0009
000c
ffe5
ff39
ff55
ff4f
fe9b
ff56
feaf
fe44
fdf7
fe4a
00ce
009f
007a
0048
00dd
fffc
00cb
009e
00f4
0094
006d
0058
00b4
007f
0107
00c2
0120
00dd
0032
ffe7
ffa0
ffc5
ff3a
feee
fed0
ff20
ff44
ff80
ff1a
ff28
fe94
fe5c
00dd
0108
00fe
0047
00fb
0064
005a
0011
0097
00d8
00fd
0068
00ea
003e
00ea
0077
00a1
001c
0090
0094
0003
ffa2
ff9f
ffa4
ffd0
fee9
ff12
feb9
febd
feb0
fe31
feb4
007c
0101
0102
007c
009f
009e
0035
0014
ffcc
0069
00d8
0089
00a2
0015
00c3
00d4
00bd
0088
0044
ff99
ffe2
ffd3
ff8b
ffe8
ffbb
fef1
ff94
ff79
ff35
ff56
fe4c
fe25
fff0
0005
00bb
0070
ffe9
001a
009c
0068
ffb9
ffbd
ffeb
ffdd
008a
ffd1
004e
fffe
0070
000d
0064
ffd5
ffcf
000b
ff30
ffcf
ff4d
ff18
ffa6
ff66
fec7
ff4e
fed8
fed9
0044
006d
fffb
0059
0028
ffca
ffbf
0065
002c
ffc7
004e
0061
009b
0063
004d
0063
00bd
0038
ffc1
ffbc
fffe
ff94
ffb3
ff7a
ffc4
ffd4
ffd5
ff61
ff93
ff6d
fe9d
fe7b
00b2
002c
00a0
0073
ffe6
0048
004c
0068
ffe4
ffec
ffed
00a2
ffbb
003d
0098
0035
008e
ffe9
ffa6
ffc7
ff70
0012
ff47
fff9
ffbb
ff66
ff3b
ff12
ff01
feb3
fee5
febc
002a
00b9
005e
0096
0065
0098
00aa
005e
007f
ffff
0099
0010
0093
0069
0077
0096
00a1
ffd4
ffe9
ffd9
ffbd
ff84
ffea
ffc4
ff89
ffbd
ff5d
ffa1
ff41
ffab
ff2b
febe
0016
0068
0053
ffdb
007e
007c
fffa
0029
0060
ffbc
ffc3
0039
fffd
ffe3
ffe3
ffb5
fffe
ffcc
009a
002b
ffff
0030
ff85
ffcb
001e
ffa4
ff5a
ff7d
ff36
ff91
ff2a
ff46
ffe4
ffd3
ffd2
0006
ff79
ffec
ffb8
fff0
ffc0
ffc6
0012
0048
000d
000b
0071
0020
0001
0048
005e
0009
0005
0019
0048
0093
0004
008b
ffa4
0010
ffd7
ffd7
ffa3
fe89
0043
0015
0000
0034
ff70
ff3d
ff1e
ffaf
ff50
ffc3
0031
fffd
ff93
ff73
ffab
ffcc
004c
0035
0050
008e
fffb
0034
ffe2
ff95
0069
0045
0007
ffe0
ff1b
ff43
ff9e
feb8
ff4d
ff95
fff1
ff70
ff22
ff93
ff13
ff8b
fff4
ffe1
ff6b
0042
ff9d
004f
ff98
0087
fff0
ffdd
003a
ffd6
0091
ffe5
ffe5
ff83
ffdb
ff7c
0011
ffe3
ff2f
ffc2
ff03
fef7
ff73
ffb3
ff60
ff47
ff06
ffa5
ff26
ff68
ffd6
ffff
ff74
0023
ff58
ffe1
fff2
0083
0053
ffec
0003
007a
ffcc
008b
0023
ffa9
001c
ffe5
ffb7
ff5a
ff62
ffc9
fef2
fef3
ff8e
ffa3
ff1a
ff7f
ff5e
ff6c
ff42
ff60
ff7d
ff62
ff98
ffb7
ffa7
ff7a
ffde
ff98
001f
0037
00cb
0061
000f
ffed
0026
0002
ffeb
fff9
ffae
ff66
ff84
ff97
fef1
fe7e
ff97
ffb3
ff2c
ff17
ff39
ff71
ff40
ff56
ffad
ff56
ff3d
ff9b
ff0c
ff8f
ffe0
ff7e
ffa7
004d
0082
008d
0020
005a
008a
0044
0049
004b
ffb1
fff2
ffb0
feef
ff22
ff4c
febd
ffa8
ff74
ff16
ff06
ff5a
ff20
ffc4
ffbf
fefe
ff5a
ffad
ffc3
ff7e
fffe
ff7f
ff94
ffe1
0062
0011
005b
0074
0094
ffe1
ffd7
ff7d
ffc7
ff93
ffe3
ffe0
ffc4
ff73
fed1
ff3c
ff5e
ff85
feb6
ff88
ff71
ffa5
ff98
ff7a
ff99
ff48
ff8d
fefc
ff66
ff92
fffe
0028
ffcf
00bc
0048
0015
0098
0062
0081
007e
ff8b
ffe6
ffc5
ffab
ff06
fec7
ff43
ff78
ff63
fec2
fec0
feba
ff7a
ff94
ff16
ff40
feed
ff3f
ffde
ff43
ffd1
0005
ffe6
002c
0066
ffde
00a0
fff8
0080
002d
ff9a
ffbc
ff83
ffbc
ffc2
ffa3
ffa2
ff4a
ffe8
ffa7
ffd7
fedd
ff07
feb7
ff91
fee7
ff49
ff8c
ff0a
ffd4
ffb1
feed
ff43
ff98
ff44
005e
ffd8
0021
000d
0092
fffe
ffac
ff93
ff8c
0060
ffe9
ffbb
fff5
ff24
ffef
ff38
ff6c
ff7e
ffc0
ff08
ff5b
ff67
ffa3
fef2
ffc9
ff4e
ffb8
ff11
ff0b
ff19
fff6
ffa6
ffa5
ff9a
002e
00ac
00a5
00bb
0039
ffdf
ffac
0079
ff8c
ffa4
0010
ff35
ff28
0042
ffdf
0004
fee9
ff8c
ff0f
ff34
ff1e
ff76
ff7d
ff80
ffda
ff21
ff59
ff67
ff71
0023
0032
0075
001b
ffdf
00cf
0020
ffe1
0033
004b
009c
ffc8
0004
ffd2
ffc0
ff52
002e
0027
ffe3
ffe7
fedc
ffa8
ff53
fef5
ffb4
ffc4
ffcc
ff4e
ff6d
0021
0000
ff4c
004a
ffc0
00b2
ffdc
004c
008c
0073
00c5
00c1
ffec
fffe
001f
0078
000d
0014
fff0
ffef
ffd0
0002
ff71
feed
fed9
fec5
fee0
ff02
ff03
0011
0044
0048
0018
0016
fffa
0038
0033
fff8
0074
fffe
003b
00aa
0103
00ba
00e5
0047
ffe5
ffe1
0006
001f
ff5d
001c
ff30
ff26
ff96
ff35
ffc0
ff17
ff97
fefc
ff12
ff51
ff8d
0059
004a
003a
ffb5
00a7
00a0
0069
00c9
0116
00b1
0052
009f
00e6
00a6
00a7
001c
009b
ff9b
004d
ffd8
ff22
ff0d
ffb5
ffd4
ff42
fef6
fefd
ff90
ffd1
ff8e
fffa
ffa4
007f
006d
ffe9
00d5
0000
fff3
00b3
007d
00b8
00b5
0159
0141
0147
007f
0108
006a
fff9
006b
ffc1
000e
0003
ffb7
ff87
ff95
ff1c
ffac
0010
ff8f
ff40
ff84
002d
0070
00b0
00bf
004c
003d
010d
011e
00f2
00f9
00c4
0156
00c9
0141
00a5
00e8
00f2
009a
00c8
ffd2
ffa4
001f
000f
ffe5
ff3b
ffd4
ff7c
ff84
ff6b
ffdd
002c
0052
0006
00d9
00ce
0146
00bd
0167
0097
0177
014a
0190
014a
0192
0163
01b2
019b
00ae
00e2
0090
00ec
00c5
0053
ffa5
ffb7
fffe
ffb6
0022
ffd9
00a9
009e
0059
0046
0105
00a3
0147
008b
0138
0123
0181
01d3
01c7
01fd
01d0
01d0
01a0
01ca
014d
0192
00ea
0194
0100
00e1
0120
00d1
0114
ff7d
ffa2
0023
0028
ff3d
fffc
ff2e
ff96
ffd2
ff40
fff9
0007
ff63
ff94
ff3d
0024
ff6e
ff49
ff5e
ffad
ffef
0006
ffec
0000
ff49
ff7e
002f
ff8d
ffc1
ff5f
ffe3
fff0
ff34
ff8b
0019
ff91
ff3d
0012
ffd9
001b
ffd5
ff46
fff8
ff50
ffa8
ffc6
ffe2
ffed
ff31
fff8
ff7c
ff35
ff3a
0028
ffab
ff61
ff7d
0027
002c
ffcc
ff77
ffbf
ffd9
ff9e
ffc9
ff78
ff74
fff8
ff6d
ffef
ffa4
ff6f
0017
ff32
001e
ff81
ff7a
ff8f
ff9f
001a
ffc4
ff66
ffa6
ffc0
ff3c
fff4
fff1
ff8a
ff64
ffe6
ff87
ff6b
0013
ff4c
0018
ff34
ff35
ffab
ff98
ff59
ff3b
ff47
fff9
0014
ff87
ff2b
ffaa
ff6a
ff8b
ff94
ff83
ffa7
ffca
ffd1
fff5
ff44
ff5e
ff31
ff93
ff86
ff76
ffd1
ff6d
ffca
ff40
000c
ff75
ffe2
0027
ff87
002a
001b
ff47
ff2f
0016
ffe0
ffb1
ffaa
000a
ff9c
ff42
0010
ff66
ff77
ff99
ff9d
0014
ff4b
ff77
ffa1
ff6b
ffb5
0008
ffd1
ffb9
0024
ff40
ff69
ff52
ff80
ff3c
0011
ff42
ffb9
ffe5
ffd3
ff9c
ff8b
ffd8
ffa0
ffd9
ffef
ff55
ff7f
ff2d
ffc9
ff30
ffea
ff82
ffe4
0023
ffe7
ff5e
ff48
ffba
ff8f
ff2d
ffd7
ff89
001e
fff8
ff90
ff61
ff65
ffe7
ffa3
ff78
ffd5
ff79
ff6c
ffa0
ff4f
ffe7
ff71
ffa5
fff8
ffd8
ff8e
ff66
ffb1
ffb2
ff68
ffee
001a
ff46
0023
ff29
ff9a
ffa0
ffbd
0026
0017
0033
ff63
0003
ffaf
ffb1
ff97
0029
ff75
ff4c
ffb4
ffac
fff3
ffa8
ffc7
0019
ff9e
ffde
ff2f
ff61
ff4a
001d
0005
0027
ff6f
ff94
ff59
0026
ff2c
ff74
ffb4
ff4d
ffea
ff49
ff99
ffc3
ffb4
ff7e
ff66
ff7a
ff95
001e
ffea
fff3
ffea
ffed
ff3d
ff68
ff30
0022
fffa
ffb8
ffd1
ff93
ffc0
ff7d
ffc1
ff94
ff3c
ff53
ff51
fffd
ff71
ff4e
ffa4
ffd7
fff7
ffc7
ffec
ff9a
ffe6
ff4e
ff40
002c
ff88
ff36
ffb8
ff48
ff52
0005
ffb6
000c
ff8e
ffe7
ff80
ffc9
ffb1
0010
ff3e
0000
0004
ffa3
ff8a
ff3d
ff6c
ff57
001a
ffe8
ffac
ff92
ff78
ffa4
ffa1
ff65
0020
0009
ffd7
ff73
ff59
ff37
ffb7
ff97
ff54
ff89
ffbe
ff7f
0012
ffa5
ff9e
ff31
0013
fff9
ff4f
ffae
ff79
ffc8
ffc4
001a
ff80
ffb4
ffb1
ff3b
ff8e
ff3d
fffd
ff77
ff88
0030
0033
ffc4
ffaa
ffe6
ffab
0000
0003
ff5d
ff3c
ffea
0022
ff3c
ffab
ff2a
ffad
ff9d
ffc9
ff50
ff75
ff9d
ff99
ff9a
ff41
ff8c
0012
ff6e
ff4d
0012
ff81
0013
ffe6
ffea
000d
0013
ff9f
ff36
ff54
ff7c
002b
0022
ffaa
ffdb
ffbf
fffb
ff3e
ff71
ffac
ff39
ff6f
ff94
ff8a
ffd5
ffc8
ff70
ffa0
ff86
ff95
ffe9
ffee
ffdd
ffb4
ffdc
ffc9
ffa1
ff8d
0021
002c
ff8a
ff5a
0009
ffc7
ffcd
ffd5
ff57
fff5
001b
ff70
ff6b
0010
ff2d
ffa1
ffe7
ffdc
ff67
ff76
ff5d
ff91
0027
fffa
ff7d
ffe2
ff75
0005
000a
ff6e
ff63
0008
ff98
ff54
ffba
ffa8
ffb6
0035
ff5d
0013
ff40
ffd2
0009
ffe3
ffef
ffb8
ff5c
ff48
0028
fff7
ffde
ff76
0004
ffdf
ff38
0035
ff83
ff8f
0008
ff94
ffa1
ffba
ffe8
000b
ff42
ff48
ff76
ff4d
ff77
0025
ff51
ff62
ffb6
0029
ff3a
ff85
0003
fffd
ff6e
ff38
ffea
001e
ff53
ff99
ff9c
ffe0
000d
ffcf
0028
ffb0
ff71
fff7
ff96
ffbe
ff95
ffa7
fff0
ff33
ffe1
fff2
0034
ffed
ff5f
0033
ffdc
002a
0033
ff4e
ffbf
002e
ff65
ffa8
ff66
ff7f
ff61
0026
ff44
0033
ff9e
ff3b
ff4a
ff93
ff82
0001
ffc3
ffd5
fffd
ffcc
ffda
ff7b
ff8d
0013
ff3f
0001
ffb4
003e
fff1
0028
ffe6
ffc8
ffe0
ffcd
ffec
ff6c
ff9a
ff59
ffb6
ff68
ffb6
ff40
ff48
ffab
ff3f
ff4d
ffd5
0005
ff8b
ff84
0002
0012
000f
0020
ffd5
ffc4
fff4
ff6e
0000
ffd8
ffd2
0022
ffed
ffdb
ffc3
ffae
ffd2
ffae
ff36
ffde
ff92
ffa5
fffd
ffd0
0020
ff67
0001
ffef
ff71
ffcc
ffa0
ff3b
002c
ffe6
ff90
002a
ffe4
ff75
ff90
ff70
ffec
ffad
ffdd
ff39
ff6e
ff76
ffe5
ffb8
ff5c
ffce
ff51
ff94
ff94
ffcd
ffd6
ff5d
ff9a
ffc1
ffda
0019
ffc0
ff4a
ffb1
ffd0
ffed
ffaf
ff34
0000
ffe8
ff8d
ffca
ff60
000c
ff9c
ffc1
fffe
0001
ff8c
ffc8
ffd0
0017
ffea
fffb
ff7b
ff71
ffeb
fffd
ffc4
0005
ffbf
ff64
0000
ff34
ff85
ffb1
0024
ff7f
ff67
0004
ffc6
ff76
0023
0013
ff33
ffdc
ffe3
ffed
ff7b
0028
0026
ff97
ffb8
ff5b
fff2
ff8e
0023
ff69
ff96
ffea
0047
ff89
ffac
0022
ffeb
ff8d
fff1
ff56
ffa4
ff32
ff40
000e
fffd
ffe1
ff36
ff5e
0005
ff61
0016
ffce
ff97
fffe
ffb9
ff33
ff35
fff1
ffe4
0024
0011
002c
ff54
ffd8
ffe9
ffa2
ffb5
ffe8
ff88
ff55
000b
ff5d
ff39
ffcc
fffc
0014
ffd1
fff0
ffc0
ff78
ff8b
ffa4
ff8d
ffc5
ff56
0018
ffa4
0006
ff4b
0011
0008
ff34
ff40
0018
ffa2
ffc9
fffd
ff7f
0063
ffd5
0005
ff2c
ff8f
ff87
ff94
0000
ff84
ff2d
0006
ffdb
ff51
ff86
ff49
ffe3
ffbb
ff8b
ff65
ffbd
0020
ff9c
ff5b
0006
ff6c
ff93
ff86
ffc5
0036
fffe
0036
003e
fff8
ff41
0000
ffff
ffa6
ff49
fff5
ff79
ff75
ffc8
ff8c
ff8a
ffc1
0027
ff33
ffb8
0004
ff6d
001f
ffdf
ff4f
ff5b
ff51
000c
ffbb
ff44
ffd8
ffcf
ff81
0031
000c
0052
ffb3
ff45
ff9e
ff53
ff6e
0002
0027
ff9b
002a
ffaf
ffdf
ff70
ff3f
ff40
ff3a
ffb7
ffe2
ffaf
ffa0
ff62
ffbe
0010
0029
ff2e
ffc3
ff3b
0038
000a
ff71
ff9a
ff68
0067
0068
ffe9
ffe2
ffed
ff75
fffb
ff73
ff61
ff9b
ffac
ff8d
0022
ffad
0009
ffb8
ff72
0005
ff8b
000b
ffb0
ff44
ffa2
ff41
ffa3
ffaf
ffa0
ff60
000e
000c
000f
0065
0074
0070
0025
fffd
ff96
ff55
0023
ff9a
ffb6
0017
0014
ffc5
ff45
ffe1
ffaf
ffa3
ff8f
ff97
000a
ffeb
001f
001f
0016
0029
ff59
0038
ff5d
000e
ffdd
ff9e
ffee
ffd6
003d
0041
ff7b
ffe9
ff9a
ffa6
ff55
ff9c
ffd6
ff35
ffd0
ff3b
ffdb
0014
ff7f
ff89
000e
002a
ff75
ff6a
ffd4
002c
000e
ffb3
0010
ff71
ffca
004d
fffb
ffbf
ffa9
005d
0008
0071
ffcb
ff4a
ff90
ff3b
0024
ffca
ff49
ffaf
ff6f
ff99
ff82
fffc
001b
fff6
ff80
fff4
0000
ff5d
ff30
0019
ffae
ff46
0025
ffa1
0030
001e
ffa8
ffc5
0017
001e
ff8f
ffb8
ffac
ff9a
ff35
fffa
0025
0009
ff53
0020
ffe8
ffe0
ff69
fffe
ffce
000c
001b
0029
ffb5
ffed
ff66
ffa0
ff92
ffeb
ff64
ff80
ffa8
000e
0006
003c
0052
0034
ff92
ff90
ff48
ffff
0033
0024
ffb9
ffd0
ffa6
0017
ffbc
ff33
ff94
ff5c
ffca
ff8b
0000
0032
ff9e
fffc
fff4
0004
ffe5
ffec
ff99
ff65
0003
0024
ffff
ff96
0005
ffe6
001b
0016
0044
0058
ffef
0080
ffd7
0019
0012
fff2
0037
0010
0013
ffd0
0025
0083
007b
ffac
0065
ffbd
0024
003d
0077
ffa0
003b
ffbd
007c
ffc3
ffcc
0072
007e
0028
0088
008e
0029
005e
ffbe
ffd9
0040
002e
0070
fffc
ffa8
ffdf
0019
0085
0031
0001
ffd2
ffee
ffe0
001a
ffe6
0014
0022
ffb7
0018
ffae
ffc4
0081
0007
00a1
00b0
0033
00d8
0086
ff9d
ffd3
ffc0
fffb
ffdb
ffea
ffb9
ffe1
0015
ffdb
0002
ffcf
000b
007e
ffac
0000
ffd9
ffd4
0014
ffec
008c
ffb2
fffb
0019
0045
008b
0097
00b7
ffe7
0029
002d
00a3
0058
ffd7
ffd0
0070
000b
ffdf
0031
003f
ffd3
0020
004c
0009
0022
ff73
ff81
ffe2
0006
ffa4
ff8d
003f
ffac
ffd8
ffdd
ff7a
004d
0080
0053
002c
0074
004d
000e
0062
002d
0014
ff99
0006
ff82
ffe1
ffae
0024
0007
ff50
ffb2
ffc6
ffe4
ffed
ffb4
0003
ffa1
ff9d
ffc3
fff0
ffc5
ffde
ffe5
003a
0035
006b
000b
fff3
fff8
00a3
0073
0099
0020
ff78
ff81
0019
ffb6
fff3
ffd5
ff9a
001b
ffc6
ff6c
ffdb
0011
ff92
ff5e
ffcf
fff3
ffb2
ffcf
ff7d
ffdb
ffed
0061
ffb5
000b
ff9e
ffe7
0078
004b
0058
ffed
00dc
ffed
0025
004a
ff74
fffa
ffc1
0002
ff79
ff4c
ffb4
ffba
ff8b
ffdb
ffbd
ffec
ff5b
ffd4
ffbd
ff65
000f
ff6b
ffd9
ff73
007b
0002
0062
ffcf
ffa3
004e
0013
0095
003c
005f
0060
0023
0029
fff7
000f
ffb8
ff7d
fff2
fff0
0016
0016
0052
ffc2
ffbd
0041
0039
004c
000f
0032
0004
ffd9
ff87
ffc4
007d
005f
0033
ffc8
007f
fff0
000b
0063
0003
000f
0007
0021
fff2
0021
ffdd
0010
ff9f
0019
ffa4
ffb2
ffc6
ff9e
ff80
ffa8
ffb7
ff97
ffcd
006a
003e
0055
004e
ffaf
ffff
ffbe
ffc5
003f
000b
fff3
00ad
000e
006e
fff5
0046
ffa0
ff50
0007
ff5e
ffe4
ffb3
0027
ff6f
ffa9
ffd1
ff74
fff9
ff99
001b
0021
ffd5
000a
0079
003a
ffd5
ff98
ffbb
0079
005d
003d
005c
002f
00c4
fff0
0042
fffd
0016
0003
fff3
ff6a
ffc1
ffd5
000a
0015
ff4b
ff7f
ffaa
ff7c
0024
ff90
fffc
ffe0
0015
0037
0034
ffdb
002f
007c
ffbb
ffeb
0074
00a6
00b5
0046
00bf
00ac
001e
ff9d
000e
ff6d
ffec
001a
fffa
ffc5
003a
ff83
ff91
003a
ffcf
003d
0062
ff98
004a
ff9d
002a
0047
0016
ffb1
ffce
003b
ffe8
001e
0027
006a
0040
00b5
0009
0026
ffbf
ff73
ff67
ff2e
ff31
ff2d
fffa
fff4
0014
ff81
0008
0017
ffe0
ff6d
002a
ff7e
ffc3
ff85
ffd2
fff7
ffcd
0037
0023
0012
ffd7
ffcb
fff0
00ac
ffe1
009f
0067
00b9
001b
ffe3
ff71
ffdc
ff5b
ff38
ffa5
fff3
ffad
ffaa
fffa
ffff
ffdc
fff3
ff9a
003f
003c
ffe5
ffca
ffd9
0052
ffb4
fff1
fffb
0081
ffb5
007c
0030
fff4
0021
00c0
0014
ffa2
0060
0055
0040
ffb9
ff78
ff48
0001
ff9f
ffb8
ff38
fffe
ffd6
ffe7
ffeb
004a
ffa1
ff79
006b
ffdf
006b
ffa7
ffc5
001d
ffad
0022
ffd4
0097
008a
008b
ffe3
00eb
0061
ffb1
0003
ff84
fff1
ffdd
ffe1
0019
ff88
ff64
ffda
ffed
ffa9
0035
0000
ff97
fff8
ffd5
0005
ff84
ff9d
ffa4
002d
fffb
0057
0082
fff6
0030
0015
ffdf
0016
00b7
ffce
ffac
0039
ffe1
0029
0036
001b
ffdd
ff7d
fff2
ffb5
003b
ffe7
004e
001f
ffe0
ffcb
005c
000a
ff8d
0002
fff5
0009
0043
003b
004e
ffe4
007f
0099
009f
fffa
00d4
ffc8
ffab
0028
ff6d
0003
ffe4
ff45
ffb5
ff86
ff8a
ff9e
ff7d
ffa8
003b
ffe3
006d
0074
ffc3
ffbd
ffcd
ff6f
ffe5
0087
0064
005c
ffe7
ffde
0005
0075
ffcc
0073
002d
ffc5
ffbc
ffe4
ff45
ff56
ff73
000d
003e
000e
0069
ffd6
000c
ff71
ff9f
ffe4
0030
0041
0060
ffc3
0025
0014
0010
0045
ff9e
0021
ffdb
006d
0055
0065
ffda
006e
000b
0006
0004
ff6c
fff0
ffa7
002b
ff7d
ff64
0061
ffda
ffdc
ffe5
ffba
0056
005a
007c
ffbd
004f
002a
fffe
ffd4
ff9a
ffb7
007b
0054
0006
0057
0027
004f
fff5
00b6
005e
0066
ffee
000d
0011
ff92
002f
ffad
ff76
ff97
ff89
ffc3
0018
ff71
ffc4
0056
ff87
ffde
ffd6
004d
ff87
ffa9
002a
0069
005d
0018
ffd1
00a6
003c
0056
fffb
00b7
00ce
ffe2
ffa9
001a
ff6e
0006
ffa6
0003
0044
ff92
003f
0023
ffe1
0051
0010
ffab
0009
ffae
ff7c
ff90
005c
0002
fff5
001c
ffef
fff4
008d
0060
001c
0034
0021
fff8
001d
ffe3
ffeb
ffad
ff8e
ffdc
005b
ff97
ff87
ff89
ffae
ff84
fffa
ffaf
ffe8
ffef
ffdb
001f
ff98
ff89
0065
0043
00a3
0021
ffe0
0089
00a6
0045
ffff
001c
004a
006a
00e2
ffdc
ff8f
0034
0044
ffb6
ff73
ff8a
ff99
ff6d
ff9b
0047
0065
0004
000e
ff7e
ff9f
003c
0041
0055
ffcf
003b
ffc9
0033
0087
fff5
0098
0094
0053
ffd6
0081
0071
005d
ffd7
ff93
0048
ff71
ff90
0054
0002
ffeb
ff90
ffbe
ffb8
0008
ffd8
ffa6
0037
0028
ffd1
0055
ff7f
004d
ff92
ffe6
0010
ffde
0084
00b0
00b0
009a
00c2
0022
00bb
0108
fff3
0084
ffbf
ffb3
001a
0015
ffa2
fff9
ffb3
ffb5
0068
ff6a
ffd1
ffed
003b
ffe2
006c
ffa1
0051
0037
0023
0057
ffe1
004e
0067
005c
0097
ffeb
0065
0059
0094
0070
00da
009b
ffdf
0032
ffd5
fff9
ffac
ffab
ffb3
ffd8
ff8f
0025
ff76
ff9e
ffb1
0051
0092
ff87
ff95
ffd1
0060
ff9b
ffc9
0011
0077
0082
00b3
0078
0073
008e
004c
008d
004c
005d
0053
0016
ff89
ff72
ff91
0030
007e
fffe
0029
ffe3
ffa8
0050
ffdd
ffd8
0079
003b
0067
0029
0042
0044
0034
0041
fff0
0082
ffff
00c5
0068
0067
0068
0128
010d
00e7
0098
ffd8
ffa9
ffcf
ffb2
000e
0096
fff5
0090
ffda
fff0
ff99
006c
0027
ffb0
fff4
0005
0079
ffad
ffbe
ffff
0011
006b
007e
00b5
001b
0030
010d
0104
014f
00be
ffe7
ffbc
0041
ff86
002b
ffb2
ff9d
0025
ffc0
001a
ffd5
ffc2
ffc9
ffbd
ffa8
0075
0036
ffdc
ffee
000d
ffec
0043
00a2
004d
0002
0043
ffce
004a
008d
00a6
0112
001b
ffb5
ffc1
ffbd
ff8d
ff99
ff5b
ff85
ff8e
ffcd
ff53
000b
ff99
ff4f
ff4c
fff6
ffaa
002a
ffae
ff88
ffab
ffe6
ff88
0069
ffc2
003a
0027
fff9
0010
007c
ffd1
009c
0031
ffa0
ffee
ffdf
000b
0034
ffed
000d
0047
ffc2
ff99
0027
000a
003c
ff9c
ff6f
ffe2
0053
ffc8
ff98
0006
ffd5
ff7b
0020
0008
ffc6
0064
000a
0059
0004
ffab
ff87
000b
0064
ffdc
005c
0023
0024
ffac
0025
ff9e
ffa0
ffb3
ff67
ffba
ffa0
ffa9
ff84
0031
ffdb
005c
ffa6
0027
ff8e
ffac
0025
ff9d
ffa8
ffcb
002d
ff99
0036
ff6a
001e
ff87
0043
0051
ffab
ffcb
ffce
ffbc
ff72
ff82
ffee
ffc3
005b
ffc2
ffda
ffb6
ff89
ffdc
0022
0001
ff8c
ffaa
001b
ff6e
0024
ff8d
0046
ffd6
0004
0022
005f
ff7c
ffa5
0008
0048
ff6c
ffc4
ff99
ff85
0053
ffa2
ff71
0049
ffb2
fff4
ff7c
ff83
004c
ff6b
ffe1
ff83
ffee
ff9e
0026
ffaf
ff6f
ffee
fff2
ffa3
ff7e
003c
001b
ffdb
ffb0
ffb6
ffb7
ff8d
ff81
0023
0011
ff87
ffe4
ffc2
ff9f
0005
fff1
ffe1
000e
ffbe
ffd8
ff67
ffa3
002c
ff75
ffd5
ffb0
ffa9
0062
0031
ffa9
ff73
ff74
ffd5
0051
0041
ff6f
0055
ffb2
0051
ff7a
ffe9
ffd3
003c
004f
0024
ffad
ff93
ffe7
0023
ff6a
ffc0
003b
fff0
ff8f
0054
001a
0021
ffdb
ffda
0024
0038
ffd7
0041
003d
ff94
ffe0
ffc4
ff73
ffb8
ffe7
002d
ffd3
0012
000c
001d
ffd1
000d
fffa
0043
003e
ffb8
001c
000c
ffdc
ffa1
0047
ffe3
0018
0043
0015
0038
ff90
ffa3
0020
ffb6
ffa0
000c
ff76
ffb0
0032
ff76
002c
003c
ffab
0012
fffd
001b
005b
002f
ffbb
000e
005b
ffaf
ffee
ffe6
005e
fffa
0019
0006
ffc1
ffac
0049
005a
ff8a
002e
ff85
ff6d
ffd6
ffcb
001c
ffc4
002e
ff6e
0009
fff3
ffd3
ff78
0024
ffbe
0064
ffd9
0051
0045
0038
ffb4
0018
001b
ffca
0016
ff9d
0014
ff89
ff95
fff7
ffac
ffef
ffb7
002c
ff95
fff6
0008
ffec
ff9e
ff8a
ffe7
ff9d
ffa3
ffd0
ffbc
ff92
ff68
ff9e
0040
000f
ffce
ffcd
ffc9
ffba
ff73
ffdc
ff71
000f
ffa9
ffed
ffdf
ff7a
ffd4
ff96
000d
0064
ff8f
fff5
0065
ff91
ff85
ff69
ffa2
0038
0065
0013
0042
fff0
ffaf
ff89
ffb9
ffd0
ff9a
004e
ffb9
0038
0033
fff2
ff68
0004
0010
002b
0006
0020
ffe8
0039
0058
ff9a
000d
0047
ffd1
ffc2
ffd4
ffd0
003a
0007
ffa7
003c
ffce
004a
ff80
ff7f
ffb5
0057
ff81
002b
ffb3
ff68
ff79
ff68
ff7b
ffad
ffc4
ff6e
ffef
002b
ffaf
ffaf
0036
ffba
004c
ff9a
ffb7
ff93
ff99
0002
ff99
0057
ffd6
ffb5
0007
fff6
ffac
0062
002c
ffb0
fffa
002d
001e
ffc7
003f
005e
004f
ff6d
ffe6
ff79
ffa7
0036
ff94
0053
001b
ffcb
ffb4
fffc
000e
ffb5
ff87
ffc0
ffb4
0043
ffe9
ffaa
000e
0063
ff94
005f
ffde
ff8f
0057
0027
fff4
fff1
002f
ff96
ffc0
ffd0
ffc3
fffd
002f
0003
fffd
0058
004d
fffc
ffe1
001b
000d
fff7
ffed
ffab
ffe4
ffd3
ffff
ff6d
0006
003c
ffab
fffe
ffa5
004e
0016
0063
000d
ffd4
0038
ff7a
ff7f
fffa
ff8d
000c
fff0
0020
ffef
ff82
ffbe
ff68
ff77
0028
0023
0009
ffc4
ffd8
ff91
0053
ff7e
ffae
0040
000b
ff73
fffb
005d
003f
ff83
0045
ff83
ffb3
003f
ff7f
ff95
000e
ff69
ffa8
0046
ff9f
0050
ff93
005a
0039
0050
0002
ffd9
0023
005e
000b
ffd4
0055
ff7b
ffe0
ff6a
ff68
ff8b
ff99
002c
ffeb
ff83
0045
ff94
ffe7
0024
0035
ff97
0029
ffff
ffaf
ffd1
000b
000c
0037
000d
0025
ff99
ffea
ff81
ffc3
ffa3
ffb0
ff87
ff99
ffaa
0016
ff7d
0000
ff73
ffb5
0060
ffa1
001b
ffbf
ff84
ffb3
ffb1
0008
005c
ffd2
ff69
0045
ff8e
fffa
000b
ff70
0050
0008
000b
004e
ffa6
ff80
0039
ffac
ff77
0017
000f
ff7c
fff5
ffc9
ff9e
004e
ff9d
ff70
003c
0024
001a
ffca
ff91
ffbe
ff91
ffa3
fff5
0050
fff0
ff8c
ff99
0010
0040
ffd3
0033
000c
fff7
005f
0043
ffad
ff6c
0030
0036
ffea
ff70
ff77
ff6f
ff93
ff97
ffb1
0029
0044
ffd5
0015
001f
ff6b
ffb0
0002
ffb1
ffd4
ffba
ff75
005c
0051
0022
ffe3
0059
ff86
ff68
ff71
ffe2
ffe2
0001
0040
003e
ff8a
ff7e
ffe4
0002
ff9a
fff1
fff2
0004
0027
ffe6
ffb8
000c
fffb
ff99
ff90
ffbd
ffa2
ff6f
fff7
ffeb
0062
ffc4
ffbe
001d
004c
ffb7
0036
000f
0038
ffa5
002f
ffdc
ffca
ff77
0010
ffdb
ffce
ff78
ffbe
0042
ffe6
ffa3
ffd4
004b
0053
ff89
fff7
ff86
ff9b
ffee
0020
0001
fff5
ffa3
ff9d
ff74
ff74
0044
ffc7
ff8a
ffc0
ff8d
0051
0017
001d
ff9b
fff2
001b
ffef
ff7d
ffce
fff2
0021
fff1
ff90
0055
ff98
ff95
ff73
ffb3
002a
ff8e
ff79
ffe1
fff3
ff8d
ff9d
ff89
ff7e
0011
fff1
002c
0039
ffad
001c
ffa3
ff92
005e
0013
ff68
fff5
000b
ff8b
0046
ffdc
ff8f
0032
0058
ff83
fff5
003b
ff72
0061
ffed
001c
ffd7
0015
005e
ffea
ffcc
ffb6
002d
ff96
0060
0015
0020
fff5
ffb9
0041
0006
ffcd
0043
0011
0036
0040
ffc1
ffdb
ffaa
ff69
0035
ff8d
ff92
ffee
ffd6
ffc2
0008
0065
ff8a
ff7d
ffb2
ffc7
001d
0039
0059
ff8d
fffb
fffd
ff7d
002d
0041
0046
0044
ff9a
ffb0
ff7b
ffc7
ffab
ff8e
ffe8
ff92
ffc2
ff68
0017
ffe6
004b
0005
ff6c
ffcb
0056
ffbd
004f
0055
ffb1
ff78
ffcc
ff97
0053
0008
0007
ff66
0058
ffef
002e
ffb0
005d
005f
fffa
ffd3
ffbf
ffe4
ffce
ff8d
ff94
004a
fffb
ffef
0061
0032
fffe
0062
0024
ffa2
002c
fff7
ffad
0054
ff86
ff8d
0064
0041
003f
000b
ffd1
ffb4
0012
ffa8
ffbf
ffe6
ff83
ffe5
ff8e
ffe0
ff92
0033
ffaa
0028
ff73
ff6f
0022
001e
001c
ffbe
ffcb
002d
ffe3
ffeb
005b
ffa2
0040
ff6e
000c
ff97
0058
ffe5
ffc6
001c
0014
ff8a
ff83
004d
0060
ffcc
ff7b
0047
ff98
ff79
ffc8
0033
ff83
ffa8
0047
ff71
ffef
ffa4
ff80
0035
ff7c
ff69
ff8d
ff8c
0008
004e
ffd6
ff95
0016
0001
ffb0
ff69
ffab
002d
ff80
005c
0034
ffb0
004f
ffbf
ffcd
ffee
0056
002b
ff94
ff92
ffd2
0034
ff8c
001a
ff6f
0007
ffd0
000d
0030
ffd7
002c
0031
0047
fff1
ffae
ffae
ffe4
0057
003f
ffc0
0050
ffbc
ffff
0004
0006
ffad
0061
003d
ff74
ffe9
0025
ffd3
ffe2
ff8a
001a
ffc8
0017
0036
003a
0025
0038
002b
ff87
0055
0003
ffe3
ff73
0054
ff9e
0019
003d
ffaa
ff9c
0059
0048
0002
ffef
0046
002b
003d
000a
ff7c
ff82
001c
ffb5
0011
0008
ffa2
ffc1
002d
001e
fffa
ff9a
ffde
fff1
ffee
ff9b
ffcd
ffed
0002
ff7d
0052
ff79
ffeb
ff95
0029
0051
ffcf
ff7f
ff95
fffa
ff73
ffbb
ffa3
ff73
ffc4
0056
fff3
ff77
0049
005e
ffca
ff78
ff92
ff8a
0035
005a
ffa8
0000
ffe0
fffe
004d
ff85
ffbf
005b
ffa9
ff92
ffab
ffbe
ff8d
fffc
ffed
ffc5
ff92
002a
005d
ff85
ff91
0030
ff99
ffa3
ffe3
fff4
0049
fffe
003e
ff86
003f
ff7f
ff74
fff3
0059
ffe7
ffb1
ffd9
005f
0006
ffcd
002a
005a
ffdb
002d
ffeb
0003
ff90
001c
001f
ff7b
0001
ffc8
ff85
ff88
ffd3
0044
ff98
ffcd
ffa7
ffd1
ffd2
0042
0049
0060
0034
0041
fffa
ff76
0059
0002
fff7
ffee
003e
ff90
ff8d
ff75
0054
0053
ff8e
004a
0008
ff6a
fffc
ff6c
ffc4
0017
003c
fff7
ffef
0035
000f
005a
0064
0046
ffaf
002d
0025
ffca
ffdd
0009
ffc5
ff7c
ffdb
ffa9
0033
001f
ffdb
0008
ffb4
004b
0006
ffe2
0066
ff69
ff6c
0050
001e
ffca
ffa8
fffc
ff86
ff94
ffbd
0044
0049
ffc3
ff96
004e
fff9
fffd
ffc5
0015
ffc8
ffef
ff8a
001c
ff6a
005e
0035
0045
ffa6
004c
002f
002e
ff94
003f
002d
003f
ffc9
ffd9
0036
ffc9
ffad
ff76
ffa5
ffa0
ff7a
0020
ff7a
ff7a
ff7b
005b
ffaa
ff70
0057
ffce
ffe4
ff80
001c
ff76
0051
004b
ff69
ffb4
ffb8
0006
ffc2
ffda
ff8a
0035
ff94
0022
ff83
0004
001f
ffaf
004b
0056
ffcb
ff8f
ff88
0022
fff3
0051
000f
000e
ffcd
0061
0033
ff7c
ff87
ffc0
0020
fff8
ffe0
004d
ff7b
003d
0039
ff84
0017
ffc2
ffd6
002c
fffe
ff72
0067
0048
ffef
004d
001a
fff5
000d
0028
ff6a
ff68
0008
0027
ffd1
ffb7
ffe8
ffd8
ffca
fff8
002d
ffca
fff4
0060
ffb8
fff8
ffe2
ffc3
005e
003c
ffa3
0067
004a
0048
005c
ffba
ffdf
002d
0008
0012
ffca
ff7b
ffba
ff80
ff95
ffee
ffb5
ff83
ffd8
ffa3
002e
ffa4
005b
ffc6
005f
0018
ffdc
ffce
005d
0008
0041
ffbd
0016
002d
ffae
ffb2
ffed
0012
ff91
0033
ffad
ff7f
ff7f
ff8d
ff96
fff6
0024
fffe
fff5
0046
0065
ff8d
ffc7
0054
0021
0046
ffb7
ffbb
0056
fffb
ff86
0015
ffd6
fff7
0055
ffd9
0023
ff83
0040
0049
ffc5
ff94
004d
ffd0
ffc9
0002
ff69
ffa7
ff8d
ff8e
ffb8
ff8a
ffa2
0049
005f
0045
ff6e
ffeb
ff76
ffff
ffa0
ffd2
ff9b
0046
0010
ffd4
ffa3
0048
0043
0042
004b
0023
fff4
005c
0014
ffba
fff7
ffec
ff68
ff99
004b
0038
0007
ff69
ffe2
004b
ffce
ff9f
0039
000c
ff76
ff7a
000f
0065
ffca
0017
ff75
0061
ff94
ff69
ffbd
0035
0052
0063
ff84
ff8d
001c
003a
0049
004f
ff78
0003
ffcd
ffdf
001d
ffdb
ff9b
ff9e
ff88
ffe8
001b
ffeb
ff79
ff88
004b
ffab
0013
0056
ff93
ffd6
fff0
0016
ffdf
ffe0
ff9f
0015
002e
ffb8
ffd9
0019
ff8d
ffd5
ff89
002c
ffad
fff4
ff9f
ffd3
0067
0034
0001
ffb7
ffac
0013
ffd6
005e
ffaa
ff8a
ff7d
ff9b
0050
0013
0036
ffe3
0059
0024
ff80
ff78
0058
ff91
0014
0050
0003
0023
fff3
ff94
0023
ffe7
ff9e
002c
ff7c
ff72
ff69
ffa0
ffdb
ffa5
ffc9
ffdc
ff69
ffe1
0045
ff9a
ffc4
002d
004a
fff1
ffeb
0010
003b
ffb3
0034
0065
ff81
ffb7
ffc2
002c
0013
ffc1
ff75
ffd2
0041
0061
0038
ffbd
ff7c
0002
ffc0
ffc2
0032
002b
ffec
ffa0
005d
0054
0054
ff89
ff89
ffb5
0028
ffbb
0035
ffdb
fffd
ff7b
ffb0
001a
fff6
ff82
ffaa
0060
ffe5
ffa5
fff7
000c
ffc0
ffb7
0006
fff5
ff9a
ff9c
ff68
ff6b
ff7a
ffe5
0037
003b
ff7f
ffbb
ffcf
002f
0026
ffd1
fff8
ffb8
ff71
ffa1
ff87
ff92
ff90
ff8c
ffa2
ff6a
005a
ffe3
ff92
ffd3
0050
ff78
0064
0032
0052
0036
ff9b
004a
001b
ffc6
ff82
001b
ff7c
ffce
0049
ff6d
0035
ffc8
ff76
0001
0051
0052
0044
ffdd
002b
0036
0033
ffe8
0066
0002
ffe3
000b
0026
ffe4
ffb4
ff70
ffb4
ff91
ff9b
ffc8
0010
ff81
ffb2
ffcc
0053
ffbf
ff9a
ffbe
0052
0059
ffe6
0044
005a
ff87
ffde
ff86
ff97
ff9b
0067
ffbf
ffe0
0037
0011
fff0
ff68
0042
002a
0036
0007
ffeb
ffa7
ff9d
ff70
ff92
ffd7
0042
ffeb
001e
ff6a
fffb
ffdb
ffbe
002b
ffed
ff88
ff8d
ffe6
003e
001f
ff6a
ffb7
ff89
ffd5
ff6f
ff9f
fff0
ffdf
002f
ff87
005d
ff87
ffc4
ffff
ffc8
0050
ff86
005e
0003
ffe8
005c
0014
ff9e
ffed
ff70
ff85
003c
0003
ffae
ff78
ffd0
ff95
001e
002b
004a
ffec
fff7
0091
0090
004d
0019
0029
ff69
ffce
0037
ffda
ffb2
ffe2
0040
005e
004e
ffcb
ffe1
0015
ffba
fff4
ff88
0056
ff76
ffbc
001b
ff76
ffe6
004c
ff90
0030
ffb3
ff90
ffc7
ffd7
ffdf
ffb8
ffd0
001c
001d
fffb
0029
ffd2
ffdd
ffb2
ffd8
0042
001b
ff6d
ffd7
0051
ff88
ffdd
0021
ff8a
ffae
ffb5
ffce
ff6d
ffe8
0002
000a
ffd3
0004
0000
0054
ffb2
ff9b
fff4
0024
ff79
ff7e
fff5
005c
ffad
0026
0025
0022
0063
ffb2
0028
ffb5
0038
000c
ffa6
ff75
0030
0044
ffa1
ff9a
ffb7
0027
ff7f
ffe7
ff7e
ffa2
ffb3
ff76
ffe0
000f
ffdb
ffd3
004f
ff72
004f
0012
000e
ffa1
0054
ffa0
ffa7
0060
005c
ffe4
0026
ffc0
0053
0066
fff7
ffef
0045
ff98
ff89
ff71
ffd8
fff9
004e
000c
ffb4
002a
fffe
0096
003c
ff97
ff88
ffb1
ffc3
ff84
0002
0027
0034
005f
ffe7
ff9a
002a
000b
ffe6
ffdc
fff0
0038
ff96
ffda
ffaa
ffa2
000d
0041
ff75
ffaa
0006
ff7a
ffd0
001c
0038
ffec
0058
ff71
ff68
ffb6
0004
ffa8
ff84
0023
002a
0011
ff9e
ff99
ffca
ffa8
ffe0
ffcd
ff6d
ffe3
fff5
ffdc
ffae
ff8f
ff72
ffc0
000c
ff88
0015
ffd6
005e
ff76
ffa3
ff85
ff73
ffb1
ff8e
ffe9
ffb8
0057
fff0
005c
ff74
0025
0059
005b
002c
0016
ffed
ff68
0035
0022
ff8e
ff75
000d
ffc2
0000
ff8f
ffa4
003f
ffd8
0031
ffe8
ff76
001a
000e
0002
005d
ff7c
ff68
ff84
0035
0048
ffb5
000d
ff6b
ffd9
0022
004a
ffa7
ffc9
ffec
ff8c
ff78
ffc8
ff76
ff70
ffbd
ff98
0048
ffaf
000b
002c
002c
0038
000a
ff7b
ff82
0032
fff0
ffc7
004a
0011
0026
ff76
ff8c
ffb8
ff79
0036
0026
0057
ffec
0056
ffa2
001f
001a
005b
ffbf
0062
ff7d
ffc6
0008
0038
ff81
ffb3
ffb8
0002
003d
ff8c
ff7a
ffdb
ffb9
0038
ffc3
0062
ffdc
0050
0009
0032
003a
fff2
ff87
005c
ff9a
ffc0
ff7d
ff8a
001f
ffee
ffc7
ffae
ffff
0030
0066
0037
0042
0047
ffbd
0027
000f
ffaf
0056
001d
ffa2
ffa7
ff68
ffec
ff52
ff3e
fff5
000d
ffc2
ff83
ff86
ff54
ff63
ffd5
ff5c
ff50
ff75
fff3
ffeb
ffb0
ffb6
ff99
005e
006d
ffaf
ffe0
ff67
ff75
ff45
fffb
ff8c
0009
ff88
ffdd
ff85
ff54
0011
000f
ff56
0012
fff8
ffa9
ff69
0031
ffaa
fff0
001e
fff0
003b
ff7b
ff7b
0034
0058
ff91
ffd0
ffe2
ffd8
ffd6
fff8
fffe
ff59
000a
001d
ff98
ff8e
ffe6
0036
ffde
ff78
ff48
ffd3
ffd5
ff92
fff0
0006
0016
ff92
ff54
ff55
0033
fff3
ffc6
ff7b
ffd2
ffba
ffb2
ffa5
ff96
0027
ffbb
0036
ff53
fffd
ff71
ff7a
0044
0008
fff6
ffaf
ffed
ff5b
0006
ffc6
002d
ffe7
fff0
ffa2
ffd8
0031
ff87
0014
ffa8
ff9e
ffe6
0013
ffc8
0029
003b
0067
ffba
ffae
0011
000a
fff3
ffd0
ff8e
ff69
0018
ffc2
ff9b
001d
ffe3
0042
003f
ffe2
ff55
ff99
ffce
fffd
0001
0029
ffa4
ffa0
ffbc
ff9d
ffe8
ffec
0055
0071
0025
0020
0044
ffbf
ffeb
003d
ffae
ff11
ffe1
ffae
ffb5
ff77
000c
ffcd
000c
ffe0
ffff
ffd6
ffe3
0040
005d
ff72
002a
ff9b
0050
002d
ffc1
ff74
0036
ffd0
ff80
0070
0014
ff9a
ff6c
ffdb
fffa
ff8b
0006
ffac
ffa9
ffce
ffde
ff6a
ff82
000d
0056
ff95
ff6d
ffd6
0029
004a
0041
0020
ff7b
ff6d
fff4
ff64
ffdd
ff81
ffb0
ffb9
ff70
ffba
0035
ffdf
fffe
001f
ffe1
ffa9
000e
ff10
ffca
ff7f
001d
ffce
ff82
ffca
0050
ff5a
0057
ff7b
ffe5
002b
0005
ff95
ffae
ff68
ffa6
0068
ffd9
ffd0
ff9e
ffc7
ff9d
0033
ff8e
0005
ffb6
004c
ffe7
ff67
ff66
ffb1
ffb3
002c
0067
001f
ff92
ff98
ffd9
ffbf
0016
ffcf
ff7a
0031
0023
fff8
005a
ff73
ff8e
ffc7
ffab
0058
0025
ffd6
0019
0049
004e
ffde
0051
ff61
ffcc
ff68
ff06
fed7
0048
000a
ff80
0061
0065
fff7
0050
ffbf
005f
0006
0067
0071
0067
ff8b
0026
fff2
ff8d
ffa9
0077
fffd
0036
0054
ffaf
ffc2
ffc1
0003
0011
ff9f
ff50
ff37
ff6e
ff5b
0053
0069
0022
fff4
003e
ffb1
ffff
ffed
0002
ffc9
ffa4
0019
0034
0019
ffa4
ff97
ffae
ffbe
ffef
00b9
0062
0090
002c
0029
0083
0045
ff94
002e
ff6a
ff11
feec
fedc
ffb6
0043
002e
002d
0081
ffb1
ffde
001c
fffc
ffdd
000f
0073
0044
0066
0093
ffc4
0073
0053
ffd5
0047
00a1
fff7
ffd7
ffe6
ffcc
0001
ffb6
ffcc
ffc9
ffc7
ffac
ff00
0001
ffd7
ff77
ff93
ffa1
0075
0000
002a
ffb7
005b
0061
0054
ffcf
ffde
0090
0045
00af
005b
0050
0063
ffeb
ffcd
0059
001b
ff93
ff8b
ffaa
ff86
ffe9
ffee
ff7f
ff7b
005d
004d
ff7e
0029
ffef
ffea
ffb8
001d
006e
006e
0085
0008
005b
ffc9
0059
ffc8
00b6
ffbe
0009
0045
0015
0049
0056
ffc7
ff84
0002
ffbd
ff4b
ff49
ff82
ff65
ff79
ffb5
ff72
ff76
0027
0063
002d
007c
0072
001d
003d
ffba
ffda
fff6
ffe3
0085
0005
00ba
007d
fffe
0064
fff9
0005
ff7f
006e
005f
ffd6
0004
ffd1
ff94
ff72
ff36
ff49
0020
ff82
ffa1
001b
000e
0081
0079
0041
ffe1
ffb8
0006
ffe4
003a
002d
0017
0084
005a
ffdb
0097
0024
002f
003d
004b
0037
ffc8
0006
ff61
ff57
0012
ff95
0012
ff4c
ffb4
0038
0003
ff7d
0037
ff7e
0037
0063
005e
0039
ffb9
0049
0020
fff6
0005
0096
0020
0082
007d
0053
ffc9
ff93
007f
0030
ffe9
ffe8
0054
0002
003d
0035
000c
ffcf
ffae
ffe0
001f
0052
ffe7
ffbc
000d
ffa3
ffb4
ff87
ffcb
0011
ffb1
0008
ffbc
006d
002f
0006
006e
0038
0005
0001
ffde
fffc
008c
0085
ffe5
0061
ffc6
0033
ff6b
0012
0029
001e
0061
ffd6
0033
ffed
0041
001b
002f
ffe2
ff84
0005
ffb4
0024
fff9
ff8b
ffee
0050
ffa7
0036
ff9e
ff9e
0013
0077
00a9
ffea
0054
0061
0047
003d
0063
ff77
004c
ff5b
ffd9
ffa1
ff9a
ff5c
0032
ffa1
ffd4
ffb3
ffca
000e
ffb8
0052
0005
ffcb
0015
ffca
004e
003c
0070
ffb3
0036
0031
007f
004f
004e
00b3
fffb
002a
0006
0041
ff62
ffde
003f
ff85
0009
ffe0
0009
002b
ff89
ff61
ffc6
ffc0
ff59
ffe4
003f
002a
ff7a
0033
ffad
ffcb
ff88
0021
ffdc
001d
0078
00a6
00bd
0084
fffb
00c5
ffdf
007f
ffad
ff66
ffc1
ff9c
ff57
ffbb
ff7b
002a
ffda
0000
ff63
001a
fff4
ffc2
ffaf
0043
ff61
0014
0028
001d
000d
ff95
ffe6
fffd
0026
00bf
00bd
0045
00f8
006b
00c2
008e
ff4e
ffb6
0003
ffcc
ffb6
003a
000c
fff9
0006
ff73
ff6e
0012
ffc7
ff66
ffa7
ff91
ff9d
ff9b
ffa6
ff89
0020
ff74
ffaa
0001
0009
009d
00bc
00d6
00c9
005d
0043
005e
ff7e
ffb1
ff67
0001
ff61
ffdf
ff65
ff6b
ffdb
ffe5
ffba
ff99
001e
ffe7
0023
ffe0
0020
0006
0017
ffe7
ffc0
0045
ff71
001e
ffe0
0094
0069
00f7
0064
0046
00a7
00c5
ffe2
ffe6
ffb9
ff4d
ff9a
ffa8
ffa9
ff93
ff5e
ff8b
ff9d
ff98
0030
002f
ffe8
ff62
ffd5
003c
ff79
ff9d
ffce
ffe8
ff48
ff54
ffeb
ffdc
001c
007d
00b7
00bf
00a1
00cc
ff63
ff67
ff4c
001d
ffb0
ffd0
0041
ffb8
ffab
ff46
ff4d
001b
ff41
ffed
ff6b
0001
ffe1
fff7
ff64
ff5a
fff1
ffe4
ffca
ff63
ffc7
0071
00a5
005b
00a1
004b
0095
0005
ff4e
fff0
ff50
ff69
ff79
002e
ffbb
002c
ffff
ffba
ff60
ffc0
ffa5
ffd9
ff5e
ff89
ff56
ff84
0044
ff90
ff9f
ff87
ff3b
001e
ffec
007a
00b2
008d
fffa
006b
006b
002a
ffaf
0005
002c
ffa5
ff7d
ff89
ffa3
ffd0
ffaa
0012
0030
ffda
ffe2
ff8e
ffcb
ff61
ffbc
ff48
ff83
ff62
ffe7
ff68
ffbf
ff7b
0019
0019
001c
fffa
00cb
0027
fff5
00ec
ffd0
ffda
ff98
0008
001e
ff85
ffcc
ff8f
ffd1
ff6d
ff57
ff5a
0035
ff72
ff5a
ff64
ff59
0045
ff75
ff8b
ff98
ff46
ffda
ff94
ffc3
0066
0038
009b
0041
00a7
fff3
008c
0016
ff9c
ff79
0003
0026
ffa7
ffc6
001c
ff79
ff72
ffe9
0011
ff39
ffed
fff9
ff82
ff9b
ffb9
ffb1
0013
ff56
ffb3
ff3b
ff27
ff9d
ffd6
ff93
009d
0083
0051
00ee
001b
ffd0
ff50
0027
ffd1
ff83
002e
ffd4
ff80
ff2f
ffaa
fff2
ffe1
ffbb
ff89
ffac
0018
ffb1
ffa9
ffd3
ff95
fff7
ff1b
ff62
fee3
ff5c
ffa3
ff49
0088
002d
fff2
007b
0010
ff78
ffbd
ffe6
0014
ff91
fff0
ff6a
fff6
ff46
ff64
0019
0000
ff77
ffbe
ff88
ffbf
ffd8
ffbe
ffe6
ff32
ff89
ffaa
ff8d
fecc
ff70
ff14
ffea
ff62
ffcb
ffce
0077
002b
ffac
fff1
ff6b
002a
002f
ffa0
001b
ff7c
ff3e
ff7d
ff56
003f
ffb5
ffb8
ff89
ff61
ffa3
ff7f
0030
ffcf
004b
ff65
0042
ff85
ffef
ff8c
0051
ffa4
ffa3
0017
ffbd
ffe9
ff40
ffe5
ff69
ffa1
0020
0014
ffa5
0066
ffb5
0011
ffd7
ffff
ffd2
001a
ffb2
0007
0063
003f
001b
007f
0004
ffdd
ffb4
ffc1
002d
ffe1
003b
0095
00cf
00c7
0069
0017
ff8c
ffe9
0078
000f
003f
fffd
ffe4
004e
005b
ff98
001a
0052
ffb2
ffc3
000f
0039
0053
ffec
0079
0088
0079
ffac
ffe1
005e
ffdc
00ae
002a
ffec
fff3
00ad
0045
004f
ffe5
ffaf
0009
004e
0038
ffcd
ff9f
0068
0055
ffea
ffd4
0065
ffd7
0078
ff8a
0048
ffed
ffb8
ffd3
0093
fff3
ffe3
0047
0011
0068
0010
0075
002d
0041
0062
0047
ffd4
0001
0058
0022
0033
0045
ffea
fffe
0054
ffc5
005c
ffba
003f
0050
ff80
005e
ff80
ffd5
002a
001d
ffdd
0004
ffcd
ffb7
ffb6
ffe8
ffa8
0060
007d
0039
0070
007b
ffff
0006
ffcc
ffcd
ff7b
ff71
000e
0050
ffc5
004d
003d
001c
ffa1
ffc1
0055
ffab
0000
ff86
0046
ffb6
ff80
ff70
005e
000b
007a
003a
0096
0097
005a
0050
0057
fff5
008b
0029
005c
0044
0022
ff62
004f
ffee
ffc1
0038
0035
ff6d
ffc6
0046
ffa4
ffee
ffab
ff75
ff9e
ffe5
ff9c
0011
fff2
001b
ffb1
ffb9
fffd
0086
0093
0044
0012
0087
007d
ffe5
ffec
ff90
ffe2
ffad
ffdd
ff9e
ffe8
ffe8
ff4f
ff72
ffaa
fff9
0040
ff75
ff99
ff55
ffb9
ffb6
ff65
fff8
0018
006a
fff0
0001
ffe7
003c
0014
ffab
0006
00c2
fffa
003e
0042
ffd9
ffd9
ffb5
ff85
ffea
ff85
ffac
001a
003d
ff9d
ffa2
fff5
0013
ff63
ffcd
ffd4
ffb7
0058
000e
003f
0020
0019
005c
0071
008b
0032
001b
ffee
002b
0097
0000
0013
0036
ffef
003f
006f
005b
ff8e
ffa7
ff5d
ff5a
fffd
ffb2
ffbc
0036
003d
ffe4
ff83
ff7a
0040
0028
002b
0083
0059
ffc9
002c
ff8b
0082
0043
ffcf
005b
004b
0042
003c
ffe7
004c
0027
003b
0011
ff64
ffa3
ff9f
000b
0047
ff7b
001a
ffec
001b
005f
ffe2
0011
0027
005f
0004
fff5
ffc8
006a
001d
ff97
ffb8
0045
000b
0049
0039
005f
ff8c
0011
ffa0
ff66
ffa5
ff89
ff8b
ffca
ff9f
ff9b
0040
ffc5
ffb8
0050
ff99
003f
0032
ff8b
ffc0
004b
ffb9
ff98
ff88
0017
ffbc
0020
ffcf
001e
fff0
ffe9
005b
ffd7
ffbb
ffdd
0016
ff99
fffe
ff61
0011
0052
0032
0042
fffa
0012
0008
ffd3
fff3
006b
0016
ffad
ffe1
ff9a
fff5
0018
fff7
ffde
ffc1
ffb2
ffcd
ffa6
003c
0092
005f
005a
003e
ffa6
fff6
ffa7
ffc2
001e
0016
005c
ff7d
001f
ffd2
0036
ffad
000c
0060
0022
ffaa
ff83
ff89
ff97
ffcc
ff8f
ff82
000d
ffa5
ffdc
0056
ffce
000f
006a
0059
ffac
ff7e
ff98
ff74
0049
ff94
ffcc
0044
ff8f
ffae
ff66
ffdc
ffce
002c
fff5
ffd0
ff98
ffc1
ffd9
0046
0026
ffca
ffee
ffa5
0018
0088
ffe9
0069
008d
fffa
0069
004a
0058
0024
001e
004b
ff76
0058
005e
0013
ff7b
fffb
0034
ffda
ffd3
ffb4
0031
0053
ffdd
ff98
ffac
0058
ffe4
ffe4
0080
ffa1
ffc8
fff7
007e
ffd0
ffe1
0016
ffac
002c
ff94
ff8e
ff8d
0030
0055
0045
005b
ffc3
000b
0028
ffda
ff57
0019
000b
ffb4
004e
ffe2
0041
0050
0064
002c
0038
007f
0079
fff5
0078
ff9b
0081
004b
ffed
0009
0096
006b
ff87
006f
0055
ffa2
fff0
0052
ff92
fff7
ff8f
ff64
ff6e
ff91
0007
ffaa
001f
ff8d
0009
0060
0029
ffaa
ffe5
ffd2
fff1
005c
ff99
004d
0028
fffc
fffb
0031
fff2
0047
ffb7
0029
ffab
0062
fffa
ff7e
ff71
fffc
004a
003a
000c
005e
ff7c
ff81
0076
007e
ffdb
ffa4
ffdf
005b
0052
ffff
ffee
0065
001a
ffb0
0001
005b
fff3
fff6
002e
ff97
ffef
ff9e
ff92
0031
0014
ff82
ff62
004c
0012
ffce
ff9b
ff8a
0029
ffcf
006f
ff9f
ffdd
0038
ff64
ff8f
ffc7
0003
004e
0005
0078
ff99
0006
0085
006e
0061
0037
ffaa
ff86
ff99
0022
ffc5
ffa9
fff9
ff5c
0060
ffa7
0001
000d
ffa1
ffd4
ffaf
fffc
0049
0021
ffd5
ffcb
ff94
ffee
ffeb
fffe
ffce
0011
ffe5
fffd
ffc0
0035
ffd1
008f
005d
ff82
fff9
ff76
ff76
ffdc
ffc5
003b
ff83
ffab
ffd9
ff75
ff8c
0010
004e
0017
fff8
ffdc
ffb5
fffb
002b
ff7c
000b
ff8c
003a
002c
0040
0097
0032
fffe
0000
ffc9
003c
ff85
0043
ff80
0059
ffb0
fff4
0033
ffed
ffec
000a
0023
0057
ffac
ff97
0025
ffa5
006e
0058
ffac
006a
0057
001a
001e
ffcd
0075
006f
ffc8
ffbe
009e
005a
0085
fff9
fffb
0010
0015
fff2
002d
ffd2
ffda
ffe7
ff5a
ffee
0032
ff8e
0033
ffa3
fff8
005b
0049
ffe5
ffc2
0028
ffee
004c
ffff
0009
0011
ffd8
0076
ffe8
005c
ffbf
0008
0031
ffba
ff4f
fffd
ffe7
0049
ff7e
ffb7
ffe5
0045
ff75
ff5c
ff94
004d
0076
0027
ffd6
005b
fff6
0016
ffff
ffd9
ffc0
0084
ffc2
ffcc
008d
0038
0048
0035
ffa6
002b
fff9
ffcb
ff7a
ff93
ffda
002e
0024
ffc2
ffd5
004f
0046
fff0
001b
ff83
ffa0
005e
ff6e
ff98
ff5c
ffba
0041
005b
ffee
0035
ff8f
0009
0063
ffc9
0067
0083
ffb3
001b
0012
ffea
ffd0
ff97
fff9
0038
ffca
0045
004f
ffde
0009
0022
ffe9
002e
ffb5
001d
ffbe
ffef
ff7d
001d
ffec
003d
ffa1
001a
fff3
0065
001a
0076
006d
ffd6
0063
ffde
0046
0078
001f
ffe5
004c
001a
fffa
0024
ff96
ffd9
ff99
0049
ffe9
ffa7
ff85
0078
fff1
ff89
0003
ffdd
fffa
ff6f
005f
0034
fff5
000f
002e
fff3
0007
00ab
00c5
0062
0044
0024
ffc6
ffd2
0029
0045
0015
ffbe
ffd1
007f
ffb7
ffe2
fffa
0059
ffb8
0090
004a
ff80
0064
003d
0055
fff9
ffa5
007c
0078
ffdc
ffcb
002f
ffda
000d
003d
005c
007d
0013
00a9
0084
ffdb
ffc7
ffac
0044
002a
0072
ffc5
0017
0010
007a
0006
ffb1
005b
ffd7
004a
0045
ff9b
0023
fff4
ffd6
ffea
0060
0062
000f
ffe3
00ee
00f2
00d0
0051
ffef
0011
005b
002e
fff0
005e
0064
ffd5
0023
ffd0
0016
ff83
0044
0014
002f
0087
ffdd
0016
0027
fffd
0030
ffa2
ffc7
002c
0058
0082
004b
ffad
ffde
005c
0008
ffcd
0026
ff85
003b
ff99
ffc7
ff8a
ffcf
ffa6
ff8c
ff35
ffee
0026
ffe3
ffd9
0025
ff85
ffd8
ff7d
ffa4
000c
ff6e
ffdf
0048
000d
002c
ffca
ff7e
ffda
ff88
fffb
ffd2
005c
ffdc
0049
fff6
004a
ffe8
ffa9
ffab
ff94
0057
001d
006b
ff9f
ffc6
003c
0023
000c
0074
004b
0062
ffba
003a
ffa1
ffe4
0019
000d
ff9f
003d
ffab
0026
0017
000b
ff85
006e
ffe9
005a
ffb7
ffab
ff9e
ff95
0031
ffff
0030
ff86
0057
0011
0072
0025
0008
ffcb
ff97
ffa7
003b
0014
ffe6
ffe9
ff87
ffc1
ffab
ff7b
000d
ffb6
0064
ffc4
0043
ff75
0008
ffcc
fff1
001e
0066
0011
0056
fff6
ff91
0018
ffb9
fff5
fffd
ffd0
ffe5
0052
0059
002d
ffaf
0016
0069
0022
ffa0
001c
002c
fff5
0011
fff5
001d
0001
ffbd
0034
ffb1
ffb4
0031
ffce
000d
0037
fff8
0017
ffe1
ffdf
fff4
005a
ffc0
fff1
ffc3
ffe8
fff9
ffe2
ff9d
000c
ffae
004d
ff93
0050
004a
ffc0
fff6
ffb5
ffeb
0047
ffe9
0073
0046
ffd9
0006
005e
ffa6
ffd8
0034
ff8b
ff9d
004a
ff9e
ffbf
006d
0068
0074
0074
fff4
ffe7
ffb3
fff3
000a
0020
005a
ffb7
000d
ffb4
005d
001f
004c
004f
ffbb
ffb5
0029
0055
0075
000e
002a
ffdf
0074
0037
fff2
001f
ff98
ffcf
0066
005e
ffcf
0024
0039
0003
fff3
ffbf
0030
ffcc
ff7e
ff8a
0051
0038
ffc2
ff71
0000
ffa4
0021
ff7d
ff77
0044
ff9a
ffa8
0033
ff81
005e
ffc1
0064
004d
ffc7
ffa6
ffce
ffde
0048
ffe1
ff7f
ffef
0014
ff84
ff94
ffaa
0013
003e
ffad
0031
ff93
0010
ffd3
ffe8
ffcb
000e
001e
ffae
fff6
ffb3
0018
ffec
ff91
ffe6
005a
ffae
003c
ff9b
ffcc
ff7b
006e
fffc
0065
001c
0003
0024
ffea
ffb0
fff4
fff0
0000
ff9a
ff97
0011
ffaa
ffe4
0054
003f
003d
ff9e
0043
004f
ffcd
ffa1
0040
fff6
005e
ff95
ffdd
006a
0011
0034
001d
0055
0002
ffbf
ff79
ffdb
ff99
0051
0071
0047
001b
ff8f
ffd0
ff95
ff6b
ffe1
0049
ff7d
ffa7
ff8e
0002
ff7d
ff96
ffe0
ffe5
0052
ff7a
ffce
0009
ffda
ff7c
0026
ff78
006c
fff1
fff4
ff8f
ffa9
ff8f
ff75
0033
ff97
ffa5
0001
ffe4
fffc
ffc2
ff69
0022
0054
ffa0
002c
005d
006f
ffd0
ff82
0000
0012
ff87
ffc0
fff3
005a
0024
ffd0
ffd2
006b
0075
0023
000f
002f
ff97
ffd7
ffd0
ffc5
0054
0038
ffc2
ff94
0062
ff9a
ff9a
ffe9
ff8b
0060
0064
ffac
ff92
ff7a
fffd
004d
0046
0061
ffbc
006c
0050
ff8b
006d
0008
0023
0028
0057
ff7b
0025
ffd8
fff7
0000
006c
ffa3
ff99
002c
0064
ff9b
0014
0018
ffc7
ffc8
005c
0025
ff95
000c
0046
ff9e
ffae
ff97
005a
ff8d
006d
003f
ff94
0042
ff90
002c
ffd6
ffe3
ff92
ffba
001a
0024
ff7a
002d
004c
fffc
005a
ffe6
ffc7
ff93
ffe7
0032
003d
002e
ff80
0035
ffc1
ff7b
ff97
ffe9
ffcd
006d
001d
fff0
ffcd
0025
0047
005c
002e
ffb9
0069
ff8a
004d
ff86
ffc5
ffb2
0001
0046
ffee
ffdd
fffe
ff92
005b
ffad
ffbd
ffea
ffb1
ffe6
004a
ff7e
ff8e
006c
ff78
ffe5
ffe4
0070
ffd9
ffa0
ffc2
0002
0048
005b
ff99
004f
ffc2
ffd7
ffac
ffc2
ffc0
0067
ff7d
0034
002b
0062
0007
ff7c
ffe9
ffae
003b
ff92
003d
fff0
ffec
ffa9
0011
005c
ffba
004c
ff82
0060
ffda
006a
ff83
ffd0
004e
ff84
ffe0
0040
ffc1
ff9c
ffda
ffc1
0044
0027
ffbe
005b
0042
ff88
006e
0069
ff93
0073
003a
ffae
ffa4
001b
ffc6
ffce
ffed
006e
ffbb
0070
0003
ffe4
ff7f
ffdf
0006
003b
ffe4
0035
0024
ffde
002b
ff72
0035
ffc1
ffa1
ff8b
ff8c
ffdf
ffba
0049
0001
fffb
0030
0017
ffdc
fff2
ff8e
003c
ff8e
0015
ffae
ffe2
ffc4
000c
ffba
0036
0010
ffd2
ff8c
ff85
ff86
ff7a
000f
ff89
ffdc
005a
ff91
0019
0007
ffac
ff99
ffb4
ffc6
ff94
0002
0067
ffe1
003e
0045
0071
ffbe
ffdf
ffae
ff9e
ffd6
ffde
ffa7
0022
000d
ffc4
ff82
0030
006f
0040
ff79
004b
0038
0068
002d
ff8b
0044
0021
ffdc
ffc4
000d
0020
002a
0075
000a
ffc7
ff78
0042
002b
ff86
0072
ffb5
ff84
ffe3
0049
ff78
005a
ffbb
ffc4
ffa0
ffbf
0059
ff96
ffcd
ffc9
0014
003c
0012
ffc4
ffd4
ffb8
ffdd
0030
000b
006c
ffb3
ffa7
0059
fff9
0021
fffa
ffa8
0027
ffc7
0074
ff87
0050
ffb4
ffc1
ff90
0007
ffc6
ffda
ff92
003f
0068
0035
ffba
ffb6
ff87
fffc
ffff
fff4
ffa2
005d
fffc
0021
ffb3
fff0
ffb7
ffa1
ff82
003c
004c
005f
0031
000e
ff8c
0059
ffae
ff90
003b
ffb7
0013
ff8a
0001
0069
006f
004a
ffd1
ffd0
ffca
0051
ffbd
0013
005e
ffce
0014
005e
0037
ff92
ffd5
ffed
ff8b
ffbb
ff80
ffe3
0049
fff2
006c
0008
003e
0017
0067
ffcd
ffee
0025
003a
003f
ffb4
ffd2
0004
ffdb
ffb4
001e
0035
ffdf
ff98
fff6
fff8
fff6
ffc4
ffae
0049
ff7d
ffe3
ffb3
0060
006b
ffd1
000a
ff7a
ffc2
0007
ffd7
ffc1
ff8b
0053
fff3
fffe
ffad
fff3
ff9b
ffbe
ffd2
fff8
ffba
000a
006c
ff8b
002b
003b
ffd0
ff83
0059
0014
ffab
ff79
ffbc
003d
ff81
0017
0029
001f
0004
ff84
ffec
0004
0017
ff79
0009
003e
0072
ffaf
ff93
0031
0032
ffe0
000b
ff95
ff7a
004d
ff8c
0068
ffeb
ff9b
ff7c
0060
000d
005b
0049
ff9d
ff98
001e
ffad
000f
0069
0013
005a
ff6b
ffc7
ffa7
ffa2
004d
ff8a
003c
ff8c
ffbd
002c
ffed
ff95
ffcc
003b
0002
004e
0060
ffd0
0004
ffba
ffa0
fff6
ff99
ff81
0031
ffb5
0042
ff94
ff88
ff7a
ffa9
004d
ff83
ff6a
fff6
ffbb
ffe3
ff74
ffcd
0011
0061
ffa5
006a
ff8d
ff7d
0034
ffd9
ffa3
0054
0033
006b
ff7a
0053
ffa3
ff77
fff6
ff7e
ffc8
0064
ffe2
004f
ffce
fffd
0011
0052
ff89
0042
ff6c
ffc9
0042
ffda
fff0
ffa3
0013
0072
ffe9
002c
ffb8
0063
ffe2
fffe
ffc7
0071
0056
ffc3
0055
ffbc
ff75
ffed
0026
ffd9
ffed
ffe9
ffb6
0033
ffde
ffff
fff7
0008
ff7f
0044
ffa0
0028
fff7
ffed
ffc6
0026
ffb2
0056
ff9a
0039
ff93
ffad
ffc0
004a
ff80
ffb2
002a
0063
ff8a
005d
ff8c
003c
0068
ff79
ffa5
0062
fffa
ffdd
0055
ffc3
0061
0063
ff87
ff8c
0016
ffb8
004b
0001
0027
000c
fffd
004a
0030
ffbd
ffa5
ffe7
fffb
ffee
ffc7
ffe3
001f
ffd1
0001
ffdd
0002
ff8c
005f
ffb7
005c
ffd7
ffba
0063
004d
ff94
ff9f
0023
ffdb
ff78
004e
fff5
0011
ff76
ffea
fff0
ffc7
000d
0020
0005
0023
ff86
ffa0
ffc4
ffcf
0006
ffcb
002a
0018
ffb5
005d
ff86
0061
ff94
ffa7
ff98
ffe3
0001
0000
ffd9
ff93
0004
ffc3
fffd
004b
00b9
ffce
0056
00ab
000b
ffe3
0029
0060
ffcc
ffef
0029
ffbc
ffdc
fff2
002d
fff4
005a
0034
0043
0039
0055
fff4
0046
0070
0003
006b
ffcf
0007
ffbd
ff91
0066
ffb4
006a
00a5
0030
0025
000c
0077
0089
ffcc
ffb1
0016
0026
0001
0003
0051
fff0
008b
ffbc
ffd8
ffa8
ffe5
ffbe
ffa5
ff84
0023
ff85
ff6c
ff91
ffa9
ffb0
0012
0056
ffbc
ffd0
000d
008b
ffad
fff6
fff7
ffc3
0054
ff9c
0067
ffcc
0017
ffc7
fff8
fff0
0056
0060
ffba
0032
ffb6
0064
ffc5
ffad
0023
ffd3
001e
ff6d
0034
0014
ff66
0019
007b
ffd6
ffb0
0028
ffba
0021
0078
0045
ffa1
002d
fff2
0005
ffca
ffde
007d
ffca
ffaf
ffe8
ffde
0021
0040
ff9f
001e
0064
fffc
004d
ffac
0020
0019
ff58
0015
ffbd
005b
ffa9
0068
0057
ffb6
fff2
002e
0001
001d
007a
fffa
0050
0027
002c
0067
0072
0046
001d
ff8a
0061
fff3
0003
ffab
0001
ffa6
ffdf
ff7e
ff51
ff84
ffaf
000f
fff8
fff1
0024
0053
0050
ffb4
ffad
000f
0035
0048
ffa9
ffa5
ffa0
ffde
0076
0060
ffba
ff90
0017
ff85
0001
004c
000c
ff93
0046
ff86
fffb
ffe8
ffbb
ffcf
0021
ffe1
0026
0063
004c
0031
ffb8
0067
fff6
ffe1
ffab
ffde
0008
ff77
ffde
004a
ff91
ffb1
ff9f
0008
005c
ffce
0032
ffbe
ffbf
ffba
fff1
ff74
0064
0019
fffc
0002
ff7d
ffae
004f
0025
ff80
ff74
ff90
0041
ff86
002e
002a
004e
ff92
ffa5
000c
0036
ffa6
ffc0
ffba
0060
000f
ffab
0074
ffdf
0065
0065
0044
000d
fff0
001f
fff4
ffb6
0004
ff52
ffa8
0056
ffef
ff73
ff71
0004
0001
ffcd
0060
ffc3
ff95
fff7
ffb5
004b
ff87
0034
ff94
0006
ffb0
0002
fff7
008a
ff92
0010
ffcc
ffb8
0065
ff7c
ffd1
0048
ffc5
ff83
ff5b
ff8b
ffda
ffc1
000a
0022
ffe1
ff70
0024
002b
ffd1
ff6f
ffff
0031
ffb2
ff93
0004
fff9
ff92
ffd1
ffe2
0049
004d
0082
0004
ffe9
fff5
000f
0001
001e
ffa7
ffd8
ff71
ff6a
fff5
ffae
ffca
ff94
fffc
ffbb
0018
005c
ff86
ff98
ff8c
ff9d
0032
0059
0024
fffa
0056
0002
ffe0
006f
fff7
ffec
ffd8
006d
ff9c
0025
ffe6
0030
ffb8
0044
ffc9
000e
0003
000b
ffd8
0027
ffd4
ff69
ff91
0047
ffbd
001f
ffdf
ffa2
ffdc
0024
0070
008a
ffe2
ffd0
ff9e
002f
008a
ffdf
ffdf
0076
0068
006c
ff89
000a
ff7f
ffdd
ff96
ffec
ff8c
ffcf
ff96
004d
ffa3
0042
ff8e
ff66
ff90
ffb4
ff9e
ff67
ff75
0030
0070
004c
ffee
0004
007b
ff91
ffb2
ff97
0089
001d
ffdc
0028
0051
ff62
ff8a
fff4
ff70
ffe7
0027
fffa
ff8b
ffce
ff7b
ff73
0030
ffe1
ffae
005b
ffb9
0051
001b
001e
0063
0085
ffda
ff9e
ffbd
ffdd
003f
0015
ffc3
ffb7
ffca
0038
fff3
fffd
ff93
ff8c
ff4d
0017
0073
0022
ffdd
ff5f
ffb4
ffdc
ffa4
0027
fffc
ffca
0064
004a
ffb8
0023
ffd7
ff9f
006c
0013
ffee
ffdb
ffb5
ff88
ffd1
ffce
0043
0013
000e
ff89
ffb5
001b
0001
ffae
ffcd
ff7f
ffce
ffef
ffeb
ff65
ff87
ffce
ffa8
ffa9
ffbd
fffb
004b
0032
ffad
ffe3
0085
ffe3
ffd7
0001
ffeb
0024
ffbc
0015
ff79
005c
0002
ffe9
ff97
ff86
ffc9
003b
0044
ffc4
000b
003a
ffaa
ff93
fff4
ff91
fff0
ff97
0052
ffaa
001c
ffdc
ffdb
0077
ffe5
0034
ffaf
ffdd
ffcb
ffe1
0047
0046
ff98
ffc6
002b
0015
ff49
0020
ffc9
002d
006b
0052
002c
005f
ffee
ffe3
ffc3
ffeb
0018
004f
002e
0041
0058
009f
0022
001e
005f
0068
0014
ffe4
ff8f
ffcf
ffa7
003a
ffba
0067
ff90
ff62
ffae
ff5f
0057
005b
0016
0082
007a
0012
0073
008e
004c
0023
0044
008b
0049
007d
0010
009f
ffd2
007b
0013
ffeb
ffaa
002a
ff88
ffa0
002b
ffac
ff83
ffd1
ffb6
ff85
0014
ffe4
ff89
ffa4
009b
ffeb
00c4
0026
00bd
003a
ffe0
0009
ffdd
0017
00b4
0082
0001
002c
0021
004a
005b
0025
ffbf
006c
ff88
0079
ffb3
000e
004f
0008
0037
ffbb
ff50
ff4d
fff7
0085
0014
0081
0096
008d
fffe
ffe9
0005
00b4
0034
0060
0012
00a7
0006
00b9
00a5
0021
ffbd
0032
ffc2
004a
ffcd
002e
ffe2
ffb9
0025
0025
004e
ffc4
fff4
ff72
0003
005b
00a6
009f
ffeb
0064
00b1
0057
0083
ffc9
ffe0
0019
0095
0026
0054
0038
0013
ffe8
000a
ff6a
ff77
0057
ffc5
ff9b
ffdd
0004
0041
ff9e
ff94
001b
ff96
0032
ff90
0086
0095
000a
0093
007d
0008
004a
fffe
0074
00ae
0039
ffae
ffff
ffea
0034
0077
0065
ffe9
0032
ffbd
ffb9
ff91
ff76
0054
ff91
ff94
ffdf
ff90
ff8e
ff45
ffb1
ffcd
0003
ffd8
0099
ffd6
000c
0007
0081
008e
003d
0022
ffc5
0013
0022
ffd9
005f
fff2
ff9b
001f
fff2
000b
ff40
ff99
ffda
001f
ff70
003c
002c
ff9f
002c
ffb9
ffc1
ffc0
002a
0074
0075
009d
0055
0076
0047
0099
0066
0095
0002
ffb7
ffa0
002e
ff9f
000d
ff54
ffb4
ff7a
fff7
0019
ff77
ff6c
ffa5
ffbe
ff55
ff9e
ff6f
002d
ffb9
fffa
ffc2
fff9
0062
ffcc
000e
0043
0060
0044
0022
ffb6
0001
0040
ffcc
0039
0034
ffae
ffb6
fff8
ff98
0016
ffd9
0005
ff85
ffc4
ff6e
ffc0
ffb1
ffbe
ff58
0036
ffd2
ff58
ff92
0049
0007
0067
0031
005f
001f
0052
0023
0018
fff1
0047
ff82
ff5d
ff81
0041
ffb7
ff7a
ff6e
0047
0021
ffaf
ff66
ff4b
001c
0009
0033
0037
ff94
ff56
ff58
ffe5
ff8a
0058
ff9d
0058
00a4
009d
00a9
0053
002e
001e
ffcc
ffc1
0031
0000
0041
0004
002b
ffd9
ffdf
ff98
ff95
ff69
0026
0006
0001
0001
ff52
ff8e
002f
ff9a
ff49
ff86
ff6d
fff3
0069
0060
ffdc
0095
fff0
0059
005e
0095
fff8
003b
ffe1
ff4a
ff90
fffd
ff93
ff82
ff68
ff76
ff98
ffbf
ffb7
ff92
ffa0
002a
0030
003e
ff73
ff64
002d
ffae
ff65
ffdb
0058
007a
0061
0001
000f
ffac
0010
ffb3
ffd1
ff92
ff99
0048
ff6b
ffab
ffcb
0039
0064
003a
ff87
0000
0025
ff8f
fff9
ff66
ff72
ffdf
ff9d
0038
ff7b
ff43
ffc3
000e
0067
fff6
00d0
0038
00ad
0095
0040
0082
ffc2
ffd7
ffe4
ff8d
0053
0055
0070
ffe4
ffa5
002f
0001
fff1
fff4
0002
007a
ffd2
ff8c
0001
fff3
002e
0047
ff59
ffbf
ffb2
0046
0093
0043
000c
0022
00ae
0014
0060
ffd2
001e
0015
0030
ffd0
0057
002c
0049
0026
0017
fff1
0064
00b5
005d
fff9
0079
ffe3
0089
0069
ffc6
0040
0004
ffd2
ffd0
0030
fffb
003a
ff8c
0005
ffb1
fff6
ffb6
ff6e
ffb3
fff9
ff9a
ffe5
0046
0029
fff4
0026
ffaa
ff6f
0036
0047
0059
0016
ffd3
0058
fff5
ff8b
ffb1
0001
ffaa
008e
0043
ffa9
ffff
0068
ff8f
ffdb
006a
ffbb
ffd1
0054
008c
0003
0049
0018
0077
ffa4
0059
ffef
000a
001e
ffae
ff8e
006e
004a
001c
00a7
0058
0002
004f
0021
002c
003a
0016
fff1
0030
004f
0016
ffca
0089
0020
003e
ffa5
ffe8
0033
ffe1
0061
004b
0080
005e
007c
ff9b
0008
0032
004e
006c
ffda
0078
0095
0024
004e
000e
005c
003d
ffe5
008d
fff1
005b
ffe6
0050
0022
ffad
ffcf
0045
ffb2
fffe
0007
ffbd
0061
002d
004d
ffb2
005a
ffda
0069
0060
0052
001b
005d
ffd9
007c
005f
0061
ffec
0097
003f
0000
ffdc
ffac
0041
ffdd
0034
fff3
ffc7
ffff
ffef
fffe
ffbb
ff8d
ffa2
ff64
ff9b
ffd9
0044
ffc6
ffd0
ffe7
ffbd
ffb6
ffc7
001d
ffc7
ffca
00a7
0016
001a
007d
ffc0
0073
ffca
ffb4
ff73
0004
0026
ffc2
ffdb
ffd7
ffda
ff5a
fffb
ffca
003e
ffa6
ffb8
ffdb
0008
0020
0040
ff85
0012
ff82
ffe4
0044
002f
ffb3
ffa7
fffa
0022
0079
0007
0027
006b
ffa8
0040
0051
ffe7
ffd0
ffc8
ff84
ff7f
ff85
0007
ffba
0028
ff4d
ff62
fff0
003b
004e
0049
ffec
0035
000c
0031
ffe8
ffd4
fff8
ffa9
ffae
002c
0093
008c
0000
ffff
ff92
0043
fffd
ffa1
000b
ffec
ffb6
ffd0
0004
0027
ffb0
000e
ffc9
0022
002f
ff81
fff8
ff88
ffe1
0006
ff8d
002c
0044
ff86
001b
ffbc
ffb8
0060
ffff
ffc2
ffd6
ff9d
ff83
002e
ffc9
000d
fffa
ffe9
ff88
ffa5
ffca
ffb9
ff92
ff79
ffae
002d
ff73
ff6f
001d
ffba
0067
ff9b
0057
fff2
0041
ffc4
002b
001b
ffce
007b
004a
0069
0056
006f
ffec
ffb8
ffbd
006c
fffc
ff82
ffe5
ffd4
ffdc
ffab
fff6
005a
ff7d
ffb3
0042
ff75
ffe5
ffa6
0042
0001
0053
005b
ff79
ffcd
0047
ffde
002e
ffe0
0079
000e
ffac
003c
ff81
ffb4
ff6f
ffc6
0057
ffe1
0044
ff9a
ff74
001c
004f
ffc7
0051
ffc3
ff81
ff64
0030
ff9e
001a
ffc2
0012
ffe5
ff6a
0001
000b
005a
004f
0085
ffb3
fffb
ff92
0043
ffb4
0035
0005
ffc3
ff60
0035
ffc6
ff9c
001d
ff64
ffe8
ffaf
0029
001c
ff96
0025
0062
0035
0011
ffd4
ffd6
ffeb
ff8b
ff65
ffe4
004a
ffc8
ffa9
0086
ffff
ffe0
001a
ffa7
0027
ffe7
ffe4
ff62
ff8c
ff64
fff6
ffb6
0016
ff6c
0048
ffd9
ffea
0027
0001
ffdb
0023
ffff
0007
ff6f
0044
ff5d
ffff
0009
001d
004c
0000
ff8f
ffcd
0054
001a
0037
fffb
ffc9
ff85
ffb2
0043
ff6a
ff9f
ffe3
0059
0038
ffeb
ffd6
0032
003b
0006
0035
ffa8
0041
ffed
ffec
0047
ffa0
0018
ffae
0037
ffb9
ffac
ffac
ffe4
ff80
ffee
ffcc
0016
ff76
0039
ffb5
ffe0
fff5
ff45
ffb2
ffbb
ff99
ffe5
002e
0059
ffb5
0055
0011
ff8f
003c
000c
0047
ffdf
0043
ff74
ff97
ffbf
0075
0030
000f
ff9d
0069
ff8c
001e
004a
0049
fff1
ff93
0015
ffcc
0032
fff4
001a
0031
ffa0
ffd8
ffbb
ffd9
ffd0
ff72
ff95
0072
0032
ff89
ffad
0067
003d
ffe1
003c
ffcf
ffec
0048
000f
0050
ffc9
006a
ffee
ffe6
fff6
0023
ffe5
0036
0036
0011
ff5f
ff5d
003c
ff98
0069
ffb4
ff8a
0013
ff8d
ffdf
005c
0068
ffca
001c
0063
0012
0001
0053
0015
006c
ffaf
ff92
000a
ff9f
000c
ffdd
ffcd
0000
ffbf
ffe9
ff78
ffaa
ff79
ff74
ff99
fff5
fff1
0017
ff8a
ff94
ffcc
0007
0039
ff92
0016
0038
ffde
ffd7
0041
0072
0055
0083
ffa1
0036
001e
ff78
ff84
ff8d
ff98
ffcd
ffd9
ffb6
0050
ffff
fff7
0005
ff80
ffeb
002d
ffbb
0059
ffbc
006b
ffff
ffd3
fff5
0052
ffee
ffc6
003a
0035
0001
0053
0024
ff9a
0060
fff0
ffdc
ffce
000e
ffdb
ff78
0044
0047
004b
0013
ffa7
ff80
004f
ffa4
ff8b
ffeb
ffef
ffcd
005c
ff8f
ffbb
ff78
004c
001b
0018
008f
ffc2
0043
ffb1
007b
fff3
0048
0051
000c
000e
003e
ffe2
ffdd
ffd8
ffd8
005a
0020
ffb4
ffb4
ffab
ffca
ffe4
003e
0045
ffc7
ffe5
0011
0067
000c
ffca
ffbf
0022
fff8
001f
ffc5
ffe2
0025
ffbc
0052
ffa5
ff66
ffd1
0017
0001
ff63
ff67
004e
ff78
ff8a
ff74
0049
0071
ffeb
0028
fff3
ff8b
0020
ffbc
003c
ffad
ffe3
ff9b
ffb0
000a
005a
fff4
0021
ffee
ffc6
0035
ffc4
ff82
0036
ff8c
ffc8
0047
0031
0031
ffa8
0024
ffb0
ff7e
ff8a
ffa9
ffa4
004d
0064
004a
0001
ffcf
ffcf
ffc2
0039
001f
0087
ffe5
ffd3
00a3
0036
0004
001d
006a
0045
003c
0010
ff95
ffff
0000
ff75
0010
0017
004f
0043
ffa0
0063
ffcf
ffe6
002b
fff0
ff8e
007a
008e
0043
005d
0070
0054
ffb8
0008
ffbe
0048
0054
ffed
ffae
ffa8
0008
0024
ff86
0043
0004
0062
fffe
ffa5
0040
ff78
ffcb
0037
0013
0068
ffcb
ff8c
ffa5
005b
002e
003e
007f
ffa0
0065
0037
005c
008e
ffd0
ffc3
ffc1
0007
fff5
ffc2
000d
ff98
fff9
0002
ffd8
ffee
ffc7
fff2
0041
ffe1
005f
0067
0071
0053
ffc4
0064
0058
0046
ffa2
0058
ffb1
0037
ffc6
006e
0055
ffe7
ffdd
0095
00a1
0011
0065
ffb5
007e
ffcb
005f
0067
ff7d
ffe1
fffd
ffbe
ffa7
ffc5
006b
0027
0026
0088
ffa6
003e
ffe5
ffc5
0082
ffd1
005a
0020
ffc5
fffe
0037
004d
ffb8
0029
0076
ffdf
0028
009c
0019
009b
0068
006d
fffb
004d
004a
0082
ffe6
006e
ffc2
005e
ffeb
ffcd
0046
0024
006e
004f
ffb5
0061
003e
0023
0005
ffe8
ffcc
0023
ffce
0004
00cb
00e3
000c
0062
0073
0027
007c
0024
0069
0059
00aa
002b
ffa8
ffa5
0088
006b
0061
ffd2
002c
003d
ffde
00a1
0053
008f
0097
0024
0019
00a9
0032
00c4
0076
003b
005f
004b
00e2
007c
0063
0038
ffd5
ffda
ffba
007a
007b
005b
0039
0041
0005
001b
00a5
0039
fffb
000b
0043
ffd5
009e
fffa
001e
ffcc
004f
0036
008c
00da
ffec
00ec
00fe
009b
0059
004a
00a3
0022
0082
0077
ff9f
0061
0011
ffdf
0021
0014
0034
001d
ffb7
0049
ffbf
0056
0004
0056
0047
ffc1
ffc9
0065
0099
007c
0090
0086
0070
fff1
00e2
0055
004e
0080
ffff
0042
ffe5
ffae
003a
0034
ff7b
ff53
ff79
0046
0055
ffd4
ff9c
0025
fff9
ff91
ffe5
ff9c
ff97
0008
0025
ffaf
007f
ffca
0011
ffe7
001d
0061
ffad
006a
ffb5
030d
018c
013f
00d8
0107
008c
00fc
0090
ffd4
006d
0020
0056
009d
0094
0004
ffe4
ffeb
0075
0040
0069
0012
0035
0054
00c9
00ab
0151
0191
01f3
02bf
039c
03be
048f
022c
00ad
006e
0047
0009
ffe8
003f
0004
ff8f
ff26
ffd0
ff74
0015
ffb6
ff95
0016
ffe5
ffb9
ff7b
ff5b
ff50
0042
ff44
ffdb
ff9d
ffdb
00f6
01b0
01c8
02f1
03fe
0485
01b4
00c1
0009
ffb7
0023
ff90
ff68
ff65
ff6d
ff85
feda
ff0a
ff20
ffcb
ffaf
ffb0
0016
ffbc
ff27
ffc1
ff72
ff5d
ffb0
ff32
002d
0033
ffc6
0063
0192
0252
02c0
0464
01c2
0111
ffac
ff53
0002
ff26
ff50
ff05
ffc9
ff1b
fef6
ff82
ff0c
ff20
ff52
0031
ffac
ffa0
ff8f
ff5d
fecf
ff7b
ffe8
ff92
ff30
ffaf
ffb7
00ca
00c1
01fd
02ed
03e1
00dc
00f3
0001
fff6
ffbd
ff2f
ffd1
ff65
ff5f
ff68
ff0d
ffb8
ff31
fff4
ffa5
005b
ffd1
ff95
ff68
ffd4
fec0
ff88
ff4a
ff63
ff89
ffaa
ff4f
006f
0078
0144
0275
03cd
017d
0022
fff5
fff3
ff03
feeb
ff69
ff3b
ff0c
fee7
ffbc
ff77
ffaa
ffc3
008e
ffe7
004d
ff90
ffbb
ff69
ff42
ff7b
ff07
ff99
ff65
ff41
fede
ff47
00e7
0116
01fe
0315
015a
00b1
ff5d
ff4e
ffbe
ff7d
fed5
fec8
ffa9
fef3
fee5
0030
ff96
ffdf
0010
003d
002f
ff78
ffd9
ff94
ffe2
fff4
ff07
ff5b
fedf
fe57
fe92
ff1e
fff7
0133
01fc
038e
0126
0093
ffb5
ffe0
ff62
fef4
ff14
feca
fefd
ff34
ff78
0043
ffd4
ff91
fff1
ffd7
006f
0034
0066
002d
ffdd
ffc4
ffa2
ff68
ff09
fe6f
feef
ff7a
ff71
007b
01aa
0287
00fc
fffa
ff7e
ffed
000f
ff6d
ffb1
ff89
ff29
ff54
ff7a
0006
002e
0036
fff0
ffd3
fff5
0092
0011
ff9b
0014
ffce
ff7f
ff45
ff7e
fea1
feb2
ff36
ff3f
0056
0179
028b
0039
005c
0017
0055
ffad
fff8
ffb4
ffcb
ffe7
00ba
0059
0072
00b2
0025
ffe8
002d
0064
004e
00a5
ffe1
0049
fff2
ff6d
ff4d
fe99
ff1a
ff12
febf
fec9
ff32
0107
01f2
0031
0030
ffbd
ffcc
ffd3
ffc2
fff6
ffc4
0091
0108
00ab
007b
0029
005a
0026
fff7
fffe
00cc
004f
00ce
001a
fff2
ff52
ffb4
fec9
fe38
fe95
fee3
fe83
fec6
0031
0175
0101
fffe
007b
003d
003d
007b
003b
0015
00b2
0122
013e
0101
00b7
007a
00b4
0056
0093
0051
007f
00bf
001f
ff8b
ffbd
ff85
ff4f
fea7
fea9
fe9e
fe73
fe79
0000
0123
00fe
0074
004b
0082
004a
ffdf
0028
0009
009a
007d
00e0
006f
00ea
0077
0023
0057
0080
0048
00c4
00c3
0022
005e
ffc6
ff29
ff05
fe65
fea3
fe45
fde7
fef6
ffbd
00ac
00c5
003a
004d
006a
005c
0025
0034
009e
fff2
00e1
0094
002c
004b
0059
0057
00f5
00e3
00a3
00c1
002b
0035
ffe2
ff79
ffa1
ffd9
ff04
fe79
fdd5
fe5b
fe71
ff58
0136
007e
00d6
009d
0094
000e
0045
ff98
0010
000a
00a9
007c
0096
00cd
00e0
0097
fff5
000e
0063
00d9
006b
003c
0047
ff63
ff42
ff07
ff32
fe0a
fde0
fdb8
fe27
0017
00a4
005a
0073
0077
ffb1
ff7c
ff6f
ffe0
ff99
005c
fff9
001e
0110
00a8
003c
0022
0026
0063
0042
0019
007c
0077
0000
001f
ff31
ff3f
fed5
fed0
fde8
fdf9
fec5
0004
012f
ffc9
0076
006c
001e
ffc8
ff93
ff7f
ff4a
0035
0011
ffff
0066
00a3
0135
00b5
000d
009e
fff7
0059
0032
003f
000f
ffed
feeb
ff0e
fefc
fec4
feaf
fee8
fe91
ff7d
001d
0018
002f
ffae
0033
0005
ffcc
ff4e
ff82
fff7
0005
0005
0101
010b
00dc
00bf
008c
fffd
0049
0019
ffa9
ff51
fff4
feff
ff7c
ff73
ff0c
fe81
ff01
fe9b
fe8e
ff47
0005
ff8b
ffe9
003f
ff40
ff50
ff39
ff6a
ff04
ff82
ffca
0075
00e1
0064
0126
00fe
007b
00c1
ffc9
ffa4
ff67
ffd2
ff53
ffa0
ff06
fe9d
fe9a
fee7
ff05
fe6c
fe8e
ffd4
ffe1
fff6
fff3
ff7c
ff1c
ff53
fe9c
ff2b
ffae
ff98
ff68
fff7
0051
00ec
004c
0115
0058
00ee
0043
0073
0034
ffae
0009
ffd8
ffa4
ff27
fe86
fe77
ff06
fe8e
fec0
ff9a
ffe5
ffd1
ff57
ff24
ff61
ff00
fe7f
feaf
ff21
ff98
000c
ffee
001b
00c6
007a
005f
00e2
0027
008e
0088
0045
002d
ffed
ffbf
ff29
ff3a
feca
fe90
ff32
fe5e
feee
ffec
00fd
ffb2
ff23
fefb
feab
fe88
fe9a
fe6e
ff25
ff96
ffc1
ffed
0059
00bb
012b
0075
0102
00de
001c
00a2
00cd
0012
0028
ff37
ffb3
ff7f
ff6f
ff20
ff44
ff33
ff0b
ffa4
0047
fff1
ffdc
ff1e
fe9b
fe77
fe3f
fe59
ff12
ff89
fff2
002a
ffde
00dd
00a9
0149
00b2
0065
004c
0059
001c
ffdf
ff89
003e
0006
0007
0005
ffb5
feeb
fe97
ff86
ff9a
00af
ffa9
ff91
fe9c
fe6d
fe6c
fef9
fec8
ffb3
fff7
ff90
fff2
0085
0065
00a1
0102
00d3
00ac
00c8
0077
0060
0069
ffe2
ff88
ff59
fffe
0051
ff3c
fef8
feee
ffaa
001d
00f2
0055
0000
ffb2
fe8b
ff3d
ff44
febc
ff6e
ff8d
ff94
ffaa
00af
007d
009b
00ec
0125
00d7
00cb
00f2
0027
00a2
fff8
ffe3
005c
0047
0020
fff9
fee6
fec4
ff2c
ff80
00e0
00ef
003f
ff8d
ff82
fee2
ff19
ffcb
fff9
000c
003f
ffb4
ffee
0040
00f1
0073
00d7
010e
0096
0123
007f
003d
ffc9
ffc5
fffb
0083
ffe3
ffb7
fedf
ffb2
ff48
00d3
01da
00e1
001a
ffe2
ff14
ff32
ff44
ff6a
0013
ffcc
0012
ffd3
0025
0049
008d
00c7
008b
00a5
003b
0075
0012
00a3
0023
0057
0036
fff9
0029
ffb4
ff07
ff3d
ffa9
003c
017e
0132
0176
0026
ffef
ff19
febb
ff29
ffcc
ffcb
fefe
ff66
ff03
fffc
ff9a
0028
0097
004b
0013
0011
004c
003f
fff8
ff5e
ffa6
ffb7
ff58
ff21
ff08
ffcc
ffdb
00fe
01bd
01fd
01ac
00b3
0042
ff12
ff16
fe8b
fefb
fec7
feaf
fefe
ff69
ffd8
ffbc
ffd6
ffe1
0069
0068
0071
ffbb
ff4f
fff0
ffe8
ff99
fff6
ffdd
ff8b
002f
0023
00b4
0175
0231
02f6
01d7
0192
00a0
000b
fead
fe84
fecd
fea3
ff4b
fe97
ff52
ff41
fffd
ffeb
0015
ffcd
ffbd
ff33
ffc3
ff7b
ff18
feca
feff
feee
ffdc
ffec
ffd9
008c
0193
01d2
02ca
02c3
02e4
0213
00f5
0003
ffb2
ff68
fec4
fe78
ff15
ff41
febb
fee4
ff38
ff1b
ff00
ff99
ff42
ffc1
ff23
fed4
feaf
feb8
ffad
ff88
ff97
0040
006d
0192
0255
02b2
037e
042c
0319
031c
0266
01a7
010e
001d
fff5
ff7f
ff39
ff2b
0007
0038
003b
ff74
ff5c
ffb0
ff27
fff1
ff87
ffa4
ff20
ffe8
fffb
0032
003d
00a8
01f1
0249
0327
031c
044f
fff6
ff69
0026
ffcc
ffcc
002c
fffb
003b
ffa5
000e
0041
fffd
0039
ff64
0062
006d
003c
ff8d
ff97
0049
ffaf
ffbc
ffe5
000d
0034
ffb2
0057
ff6d
ff7d
0048
ffcb
0003
ff71
003d
0055
0026
ffeb
ffd2
0025
fffe
ffba
ff9b
ffee
ffa8
ff7c
ff88
ff9a
ffae
0065
0071
0006
002e
0000
ff84
ffc8
ff98
ffff
0049
ffd6
ffc5
ffa1
ffab
ffd5
0007
0025
ffb6
ff68
ffbf
fff2
ffd7
0048
ffa5
ffd9
0009
ff6d
002c
ff8c
ffcd
0018
007c
ff95
0003
0013
0017
0030
ffde
0013
fffc
0014
ff97
fff1
ffa7
ffb4
ffd8
ff80
ffe0
ffce
ff75
ffa9
fff8
fffe
ffdb
ff86
ffa4
ff61
ffb6
0008
0059
0051
fffd
ffb5
0058
003a
ffaa
ffe7
0040
ffd0
ffd9
ff84
0032
000c
0033
ff8b
ffb8
0026
ff86
001b
ffec
004b
ffe3
ff6b
0008
ffe4
0048
ff67
ffc6
ffea
002d
ff64
ff69
ffa1
ffcf
005d
0057
0070
001c
000d
0067
ff85
ff67
ffa6
fff9
0010
000f
ff8c
0059
ff90
ff60
0025
ffba
0011
ff60
0049
0036
ffcc
ff8d
0056
0048
0042
ffbf
ffd1
006f
0009
0048
0088
0072
ff90
ffeb
ff91
ffc3
0044
ff66
0040
000f
0020
001f
0019
ffc2
ffd7
ff79
ff77
002a
ffea
005b
ffed
ff9b
ffaf
ff7c
ffd7
003e
ffdf
003e
ff8b
0047
ffe0
0081
ff97
ffd7
0008
0020
0050
ffe9
0069
0034
ff93
0015
ffbb
ff61
0048
005f
ffa4
ffcd
fffa
ff9a
ffca
ff9b
0029
ffce
fff3
0057
000f
fff0
ffe7
ff8d
ffd9
0007
008b
ffda
005d
004e
fff9
0026
0023
0029
0023
ffcd
ff99
0003
ffab
0046
004f
ff77
ffed
ffc0
0048
000e
ff88
001b
007d
ffd5
ffa5
ff84
0028
ffd9
000c
0066
ff94
0067
006b
ffb8
0087
0067
fff3
0015
ff80
006c
0068
0016
ffa8
ff76
0059
ffac
ffcf
ffaa
ffe1
0053
003d
ffeb
ffbc
ffb5
003f
0082
002d
ffa6
006c
ffb2
ffbf
0069
0038
001e
ffa3
004d
0076
007f
000b
0021
0025
006b
ffde
004a
ffe4
006b
ffb2
ffc8
ffe9
004a
ff75
ff80
ffc4
002f
ffca
0012
000c
ffa1
0077
ffc8
0015
0056
ffa1
001f
ffc3
002a
0048
ffb7
0000
ffee
0019
0045
ff99
fff5
ff8c
0051
007a
005a
0068
001b
0046
0046
ffbe
ffa1
ffd7
ff76
001f
ffed
000a
003b
ff92
fff4
ffca
fffb
ffa6
0053
007c
003b
ffeb
ffb5
fff1
ff79
ffc5
0031
ffab
ffe9
0021
fff2
0083
ffad
005c
0052
000a
ff9a
0064
ffbd
ff9c
ffed
ffc0
0053
0077
ffdd
000c
ffd8
ffe3
0061
ffb4
ffb6
006d
ffa6
fffc
0029
0002
ff8b
ffea
002d
000e
ff82
0003
ffef
0042
ffea
0030
ffe3
ffc7
ffef
fff6
fff5
0037
ffac
004b
000a
ffd6
fff3
fffc
ff9c
ffc4
0006
ff9f
0063
ffcd
ffb1
ffba
0021
007c
ff87
0026
ffcb
ffed
0037
006a
0030
ffe3
001c
ffc4
007e
ffb6
0003
ffda
ffd9
001b
fff5
ffda
ff7e
ff93
ffbe
ff7b
fff1
0020
0051
ffce
ffb1
0001
0032
000c
ffdc
ff9c
0006
ff9a
ff88
ffd9
0036
ffc2
005a
004d
ffde
0066
007c
ffda
0023
ffc1
005d
ff96
ff88
ffeb
0038
ff78
0020
0031
ff83
0020
ff9c
003d
ffe9
0000
ffed
ffd5
004a
001f
ffe6
ffc5
ff92
ffee
004c
ffbf
ffd0
ffa2
0039
ffe3
ffc7
0042
0068
004c
0022
001c
ff98
004c
ff7d
ffca
ffb6
0044
0047
ffae
ff95
fff2
0013
0057
ffc2
ff93
0007
ffc8
005d
0033
ffd4
ffaf
000a
ff86
ffb5
0007
0031
fffc
ffbf
005d
003f
002e
001a
001a
0059
ff94
ffe3
ffcf
001b
ffa0
0060
ffd0
0068
0075
ffa9
003c
ffd0
ffd8
002b
ff8f
002a
003a
ff91
ff7d
ffc4
004e
ffd3
0004
ffb0
ffc2
fff2
fff1
fff7
0043
001e
0040
ff78
ffc1
0007
0063
ff8f
003a
0034
0052
0037
0033
0012
ffc7
ffee
005e
ff73
ff62
fff9
fffb
0025
0014
005f
ffc9
ffaf
003c
ffb2
ffc4
ff93
002c
ffd5
ff87
0011
ff6e
0053
fff8
001e
ffe7
0035
ff9d
ff98
0064
ff84
ffa5
fff7
003b
003e
ffd7
ff81
fffa
ff66
ffb9
ff63
ffee
fffa
ffad
fff0
ffae
0035
0025
0002
ffb6
0033
ffd5
ff93
0011
ffb1
0036
ff86
0055
0051
000e
ffb0
0049
0050
0001
ffc0
ffd9
ff95
ff85
ffa9
0066
ffcf
0039
0035
ffa8
ff91
000c
0001
ff63
ff9d
fff5
ffb3
ff9d
ff73
002c
003c
ffd7
ff87
0054
0055
ffc3
fffd
ff72
0063
0009
ffc7
0059
ffff
ffc9
003d
ffab
ffca
006a
ffba
0042
0040
ffd4
001a
0021
ffcd
004b
fff0
000d
fff7
ffbd
000d
0008
fff6
fff4
ff76
ff88
002b
ffed
0006
ff7c
fff1
fff5
0015
ffa2
0014
ff7d
ff8b
ffaf
0033
0037
ffc9
ffa3
0015
0056
ffee
ffb0
ffce
ffda
0021
0011
ffd5
ff94
0032
fff7
0014
ff85
0035
ff74
fff6
002c
0011
ff9d
0019
ffea
ffb8
004e
005c
0036
ffa1
ff97
fff5
0039
0014
0038
ffc5
0024
ff93
ffdf
0035
ffba
0030
ffa1
ff98
ffb0
0024
ffdf
ff91
ff6d
ffaa
0045
ff75
ff93
ff7d
0020
ff66
0024
fffe
0027
007d
ffcf
0015
001c
0044
ff7b
fff5
0006
fffc
0030
001c
ff9b
0016
ffe4
0073
ffe8
ffa9
0039
0023
ffc7
ff97
003b
ff76
0038
001a
0054
ffbe
ffad
ffea
ffbd
ff88
005d
002c
ff7d
0026
ffcc
ffdf
ff9a
004b
ff80
ffc5
ff78
0050
ff81
ff9d
ff92
ffec
002b
0017
0057
ff81
fffb
ff80
003c
ff76
0058
ffc8
ffb5
fffe
ffa4
0025
001b
ffe2
0056
0018
ffdb
0016
ff91
ffb2
000e
0047
006d
ffec
ffaf
ffa6
fffa
0059
0036
0042
0014
005f
ff7f
ffe2
0049
0022
ffaf
004a
ffca
ff78
fff7
ffc3
ffd5
0018
ffda
ffeb
0071
0000
000e
004e
0053
ff84
ff9b
ffeb
fff6
ff8a
003d
0011
0029
0030
ffea
ff99
0028
004c
ff84
ff83
ff87
ffca
ff7e
0041
0004
ffb2
001a
ffce
ff77
ff96
fff9
007b
ffa7
0012
0050
ffb9
0053
ffa8
0007
ff9a
ffcf
ffcc
ff8a
ff98
0024
ffc3
ffbc
0029
ffb8
ffe9
ff7a
fffd
ffcd
0034
ff99
003d
fffe
ffae
fff6
0000
0054
ffc1
ffd1
ffc8
0054
0018
ff93
0005
001f
003f
0057
ffa8
ffef
ff88
ff9a
ffbd
0051
ffff
005c
0005
ff98
ff7a
ffb3
0050
ff76
004c
ffc9
000a
ffa7
ffc8
005b
ffe7
002e
ffad
ffe0
0076
0049
0036
0089
ffa2
ffd2
ffac
004a
0075
0026
fff1
0037
ff95
0034
ff89
ffe1
003c
004a
0060
0002
ffdf
ff95
0056
003b
ffaf
ffc7
0060
ff99
ffef
fff4
fff4
0035
0042
ffb9
0038
ffad
0037
000c
0048
0075
004e
0088
ff8c
ffca
000c
ffbe
0018
ffcf
ffd0
ffde
fff1
0029
ff97
0023
ffb8
fff9
ffc1
fffc
ffa9
ffba
ffa6
ffb8
0016
0057
0063
ff88
001d
ff7e
ffd8
0060
ffee
0056
ffa0
ff69
002b
ff9d
ffac
ffa0
ffea
ffa5
ffb2
0009
fff7
ffdc
ffa3
0049
ffc2
0038
0014
001a
ffac
ffa2
001b
ffad
ff84
0013
005a
0049
fff5
ffe8
0034
fffc
0066
fff4
ff6d
ffe2
ffb0
ff71
0036
ffc6
ffbe
ff91
ffe6
001e
0048
ffc8
ff79
ffef
fff7
0013
ff70
ffc5
ffee
ffe5
0054
000b
ffd0
ff75
0000
ffa5
001c
ffd2
ff71
0062
0004
ff68
0033
001a
ff6c
ffea
ffd0
fff2
ff7d
ff99
ff77
ffbc
fff2
0042
005b
003e
000e
0029
0008
001c
003f
0034
0048
fff5
ff79
ff79
ffd0
0039
0040
004a
ff91
ffcd
0033
0002
ff9a
ff8c
ffc5
ffcf
004e
0033
fff8
ffa0
ff94
004e
0034
ff6f
ff80
ffef
ff69
003a
ffa7
0017
fffd
ff8c
ffc7
0000
ff9f
0038
ff87
0003
ffa1
ffd4
ffbc
0023
ff81
ffd7
ffe2
000c
0021
0001
000a
fffb
0009
0006
004e
ffc4
0005
ff7a
0052
003c
0001
ff68
ffa5
004a
002e
ff7e
ff9c
0008
fff4
ffba
ff99
0033
0059
0033
0052
ffe6
0007
fff4
ff94
005a
0039
ffd7
ffd3
0027
0061
0033
fffb
ff8b
0042
ffce
ffe3
0062
fff3
ffab
ffc8
0010
ffd8
ffd1
ffc7
0063
ff73
0025
ffc1
ffb0
ffd4
0049
ffc6
fffa
0026
ff86
000a
002f
fffe
ffb3
003f
ffe0
ffd4
ff89
0004
ffb0
ff7f
0025
0000
ffb4
ff87
001e
000f
ffd3
0052
fff7
0050
0035
ffed
ff9c
005e
ffeb
0008
fff2
ffb9
ffd1
0009
0024
0014
0007
fff2
0009
ffb9
0014
ffa0
ff6f
0041
ffa9
fff3
fffc
ffa2
ffba
0016
ff77
ff9a
0044
ffe6
003e
ffb5
0036
ff80
ff72
0016
ffe5
ffbf
0032
ffa5
ff8a
ffba
ffc4
0027
0056
0049
0063
ffbc
ff7f
ff88
0051
0035
004b
0064
0035
004e
ff95
000d
ffc7
000b
ff82
ffa0
ffaf
0000
0002
001d
ff70
ffb5
0002
ffa4
ffbf
ffc0
0060
ffe2
ffb3
ffb3
ff69
0033
ff93
ffaf
0024
fff3
0035
0017
0051
ff85
ffa3
ff76
ffa6
000e
005f
001b
ffc3
ff71
003c
fff3
ff71
ff75
005f
ff74
0012
ffe2
ffab
ff70
002d
0021
ffd0
ffd7
ffa0
ff95
ff86
ffc2
ff6e
ff7f
0001
ff7e
ff9a
ff9d
ff9e
ffa0
0002
005b
ffc2
ffc5
ff88
ffd6
ffc4
001f
ffd2
ff68
ffcf
ffbc
ff90
005a
fff1
0038
ffb2
ffb9
ffb2
ffd0
ffac
fffa
ffd4
0067
ffad
005c
001a
0025
fffb
0000
0003
0016
0013
ff8e
ffc7
ffaf
005b
003b
0001
ffa8
ffec
ff8c
ffc6
0015
0057
0033
ffac
ffef
ffe7
ffb2
0048
0014
0031
ffb0
0019
ffc4
ffc4
ffd1
002f
ff7f
ff6f
ffb9
0044
ff8d
ff69
ff95
ffe7
ff74
003d
0038
0036
ffff
ff77
0047
ffa6
0013
0024
ff82
ffd3
ffc6
002d
ffad
0018
002e
ffe9
ffe9
fff2
0006
ffd5
001e
004e
003b
0011
ff7d
ff9c
ffeb
ffc8
fff9
0038
ff9f
0050
ff94
fff1
0003
001d
ffd2
0052
ffed
0062
0024
ffe4
002a
ffd4
0008
0050
ffff
ffe9
ffcc
ff85
ffd5
ffd9
ffd9
0047
001f
ffc1
0044
0058
0062
0003
ff86
ffca
ffce
ff6f
0050
005e
000f
ff87
ff6c
ffd9
0001
ffb6
ffd5
ffb0
ff94
ffb8
ffea
ff93
ff97
ffc3
0026
002b
ffde
ffcb
ffda
ff6a
ffd4
0008
fffc
0016
ffa3
ff98
ffa4
ffc9
ffc0
ffbf
002a
ffc7
fffd
004e
fff7
ffbe
ffca
001d
ffee
0041
002a
004a
ff9d
ff7c
0040
ffd2
ff98
ffd3
ffba
005d
ffa0
ff7d
005e
005e
005e
003f
0054
ffb1
0024
0043
ff78
